{
  "version": "1.0",
  "truncation": null,
  "padding": null,
  "added_tokens": [
    {
      "id": 0,
      "content": "<eos>",
      "single_word": false,
      "lstrip": false,
      "rstrip": false,
      "normalized": false,
      "special": true
    }
  ],
  "normalizer": null,
  "pre_tokenizer": {
    "type": "Sequence",
    "pretokenizers": [
      {
        "type": "Split",
        "pattern": {
          "Regex": "https?://|%[0-9A-Fa-f]{2}|[!#$%&'()*+,\\-./:;=?@\\[\\\\\\]\\^_`{|}~]"
        },
        "behavior": "Isolated",
        "invert": false
      },
      {
        "type": "ByteLevel",
        "add_prefix_space": false,
        "trim_offsets": true,
        "use_regex": false
      }
    ]
  },
  "post_processor": {
    "type": "TemplateProcessing",
    "single": [
      {
        "Sequence": {
          "id": "A",
          "type_id": 0
        }
      }
    ],
    "pair": [
      {
        "Sequence": {
          "id": "A",
          "type_id": 0
        }
      },
      {
        "Sequence": {
          "id": "B",
          "type_id": 1
        }
      }
    ],
    "special_tokens": {}
  },
  "decoder": {
    "type": "ByteLevel",
    "add_prefix_space": true,
    "trim_offsets": true,
    "use_regex": true
  },
  "model": {
    "type": "BPE",
    "dropout": null,
    "unk_token": null,
    "continuing_subword_prefix": null,
    "end_of_word_suffix": null,
    "fuse_unk": false,
    "byte_fallback": false,
    "ignore_merges": false,
    "vocab": {
      "<eos>": 0,
      "!": 1,
      "\"": 2,
      "#": 3,
      "$": 4,
      "%": 5,
      "&": 6,
      "'": 7,
      "(": 8,
      ")": 9,
      "*": 10,
      "+": 11,
      ",": 12,
      "-": 13,
      ".": 14,
      "/": 15,
      "0": 16,
      "1": 17,
      "2": 18,
      "3": 19,
      "4": 20,
      "5": 21,
      "6": 22,
      "7": 23,
      "8": 24,
      "9": 25,
      ":": 26,
      ";": 27,
      "<": 28,
      "=": 29,
      ">": 30,
      "?": 31,
      "@": 32,
      "A": 33,
      "B": 34,
      "C": 35,
      "D": 36,
      "E": 37,
      "F": 38,
      "G": 39,
      "H": 40,
      "I": 41,
      "J": 42,
      "K": 43,
      "L": 44,
      "M": 45,
      "N": 46,
      "O": 47,
      "P": 48,
      "Q": 49,
      "R": 50,
      "S": 51,
      "T": 52,
      "U": 53,
      "V": 54,
      "W": 55,
      "X": 56,
      "Y": 57,
      "Z": 58,
      "[": 59,
      "\\": 60,
      "]": 61,
      "^": 62,
      "_": 63,
      "`": 64,
      "a": 65,
      "b": 66,
      "c": 67,
      "d": 68,
      "e": 69,
      "f": 70,
      "g": 71,
      "h": 72,
      "i": 73,
      "j": 74,
      "k": 75,
      "l": 76,
      "m": 77,
      "n": 78,
      "o": 79,
      "p": 80,
      "q": 81,
      "r": 82,
      "s": 83,
      "t": 84,
      "u": 85,
      "v": 86,
      "w": 87,
      "x": 88,
      "y": 89,
      "z": 90,
      "{": 91,
      "|": 92,
      "}": 93,
      "~": 94,
      "¡": 95,
      "¢": 96,
      "£": 97,
      "¤": 98,
      "¥": 99,
      "¦": 100,
      "§": 101,
      "¨": 102,
      "©": 103,
      "ª": 104,
      "«": 105,
      "¬": 106,
      "®": 107,
      "¯": 108,
      "°": 109,
      "±": 110,
      "²": 111,
      "³": 112,
      "´": 113,
      "µ": 114,
      "¶": 115,
      "·": 116,
      "¸": 117,
      "¹": 118,
      "º": 119,
      "»": 120,
      "¼": 121,
      "½": 122,
      "¾": 123,
      "¿": 124,
      "À": 125,
      "Á": 126,
      "Â": 127,
      "Ã": 128,
      "Ä": 129,
      "Å": 130,
      "Æ": 131,
      "Ç": 132,
      "È": 133,
      "É": 134,
      "Ê": 135,
      "Ë": 136,
      "Ì": 137,
      "Í": 138,
      "Î": 139,
      "Ï": 140,
      "Ð": 141,
      "Ñ": 142,
      "Ò": 143,
      "Ó": 144,
      "Ô": 145,
      "Õ": 146,
      "Ö": 147,
      "×": 148,
      "Ø": 149,
      "Ù": 150,
      "Ú": 151,
      "Û": 152,
      "Ü": 153,
      "Ý": 154,
      "Þ": 155,
      "ß": 156,
      "à": 157,
      "á": 158,
      "â": 159,
      "ã": 160,
      "ä": 161,
      "å": 162,
      "æ": 163,
      "ç": 164,
      "è": 165,
      "é": 166,
      "ê": 167,
      "ë": 168,
      "ì": 169,
      "í": 170,
      "î": 171,
      "ï": 172,
      "ð": 173,
      "ñ": 174,
      "ò": 175,
      "ó": 176,
      "ô": 177,
      "õ": 178,
      "ö": 179,
      "÷": 180,
      "ø": 181,
      "ù": 182,
      "ú": 183,
      "û": 184,
      "ü": 185,
      "ý": 186,
      "þ": 187,
      "ÿ": 188,
      "Ā": 189,
      "ā": 190,
      "Ă": 191,
      "ă": 192,
      "Ą": 193,
      "ą": 194,
      "Ć": 195,
      "ć": 196,
      "Ĉ": 197,
      "ĉ": 198,
      "Ċ": 199,
      "ċ": 200,
      "Č": 201,
      "č": 202,
      "Ď": 203,
      "ď": 204,
      "Đ": 205,
      "đ": 206,
      "Ē": 207,
      "ē": 208,
      "Ĕ": 209,
      "ĕ": 210,
      "Ė": 211,
      "ė": 212,
      "Ę": 213,
      "ę": 214,
      "Ě": 215,
      "ě": 216,
      "Ĝ": 217,
      "ĝ": 218,
      "Ğ": 219,
      "ğ": 220,
      "Ġ": 221,
      "ġ": 222,
      "Ģ": 223,
      "ģ": 224,
      "Ĥ": 225,
      "ĥ": 226,
      "Ħ": 227,
      "ħ": 228,
      "Ĩ": 229,
      "ĩ": 230,
      "Ī": 231,
      "ī": 232,
      "Ĭ": 233,
      "ĭ": 234,
      "Į": 235,
      "į": 236,
      "İ": 237,
      "ı": 238,
      "Ĳ": 239,
      "ĳ": 240,
      "Ĵ": 241,
      "ĵ": 242,
      "Ķ": 243,
      "ķ": 244,
      "ĸ": 245,
      "Ĺ": 246,
      "ĺ": 247,
      "Ļ": 248,
      "ļ": 249,
      "Ľ": 250,
      "ľ": 251,
      "Ŀ": 252,
      "ŀ": 253,
      "Ł": 254,
      "ł": 255,
      "Ń": 256,
      "ht": 257,
      "tp": 258,
      "http": 259,
      "//": 260,
      "://": 261,
      "ww": 262,
      "co": 263,
      "er": 264,
      "https": 265,
      "https://": 266,
      "in": 267,
      "com": 268,
      "or": 269,
      "en": 270,
      "es": 271,
      "ar": 272,
      "an": 273,
      "www": 274,
      "on": 275,
      "at": 276,
      "al": 277,
      "http://": 278,
      "%B": 279,
      "re": 280,
      "st": 281,
      "20": 282,
      "%D": 283,
      "it": 284,
      "de": 285,
      "ro": 286,
      "ch": 287,
      "le": 288,
      "%8": 289,
      "ic": 290,
      "%E": 291,
      "il": 292,
      "as": 293,
      "et": 294,
      "htm": 295,
      "ag": 296,
      "ct": 297,
      "html": 298,
      "lo": 299,
      "am": 300,
      "el": 301,
      "ion": 302,
      "%A": 303,
      "id": 304,
      "ent": 305,
      "%2": 306,
      "is": 307,
      "ed": 308,
      "to": 309,
      "ur": 310,
      "ho": 311,
      "ing": 312,
      "ad": 313,
      "th": 314,
      "un": 315,
      "00": 316,
      "%5": 317,
      "ac": 318,
      "se": 319,
      "pro": 320,
      "ew": 321,
      "li": 322,
      "ter": 323,
      "ph": 324,
      "po": 325,
      "us": 326,
      "um": 327,
      "201": 328,
      "em": 329,
      "du": 330,
      "vi": 331,
      "for": 332,
      "%3": 333,
      "im": 334,
      "ra": 335,
      "and": 336,
      "10": 337,
      "%D8": 338,
      "la": 339,
      "php": 340,
      "%9": 341,
      "%D0": 342,
      "ru": 343,
      "bo": 344,
      "pe": 345,
      "ut": 346,
      "25": 347,
      "mo": 348,
      "11": 349,
      "art": 350,
      "ia": 351,
      "fil": 352,
      "ta": 353,
      "do": 354,
      "ig": 355,
      "ap": 356,
      "no": 357,
      "log": 358,
      "org": 359,
      "age": 360,
      "%20": 361,
      "qu": 362,
      "ate": 363,
      "ir": 364,
      "iv": 365,
      "au": 366,
      "te": 367,
      "ol": 368,
      "ub": 369,
      "produ": 370,
      "new": 371,
      "ation": 372,
      "%5B": 373,
      "%5D": 374,
      "ort": 375,
      "%C": 376,
      "12": 377,
      "filter": 378,
      "%D9": 379,
      "ers": 380,
      "product": 381,
      "res": 382,
      "pl": 383,
      "ul": 384,
      "ce": 385,
      "con": 386,
      "%BD": 387,
      "arch": 388,
      "ab": 389,
      "ik": 390,
      "ay": 391,
      "13": 392,
      "ty": 393,
      "ri": 394,
      "go": 395,
      "di": 396,
      "%BF": 397,
      "om": 398,
      "15": 399,
      "19": 400,
      "fi": 401,
      "est": 402,
      "14": 403,
      "%E0": 404,
      "tag": 405,
      "16": 406,
      "net": 407,
      "24": 408,
      "of": 409,
      "blog": 410,
      "news": 411,
      "%3A": 412,
      "ak": 413,
      "os": 414,
      "up": 415,
      "18": 416,
      "%EF": 417,
      "op": 418,
      "sp": 419,
      "23": 420,
      "ment": 421,
      "17": 422,
      "eb": 423,
      "ang": 424,
      "sho": 425,
      "all": 426,
      "sh": 427,
      "ie": 428,
      "%2F": 429,
      "%25": 430,
      "br": 431,
      "red": 432,
      "ine": 433,
      "fo": 434,
      "%B8": 435,
      "dex": 436,
      "ok": 437,
      "fr": 438,
      "ma": 439,
      "the": 440,
      "be": 441,
      "22": 442,
      "page": 443,
      "view": 444,
      "me": 445,
      "index": 446,
      "30": 447,
      "ca": 448,
      "ist": 449,
      "so": 450,
      "ver": 451,
      "26": 452,
      "ne": 453,
      "ve": 454,
      "ci": 455,
      "ory": 456,
      "je": 457,
      "ess": 458,
      "%E3": 459,
      "uk": 460,
      "tr": 461,
      "forum": 462,
      "09": 463,
      "wor": 464,
      "29": 465,
      "type": 466,
      "sk": 467,
      "08": 468,
      "da": 469,
      "28": 470,
      "%D1": 471,
      "fe": 472,
      "ction": 473,
      "05": 474,
      "27": 475,
      "iz": 476,
      "04": 477,
      "pr": 478,
      "%A7": 479,
      "ex": 480,
      "06": 481,
      "07": 482,
      "jp": 483,
      "03": 484,
      "ck": 485,
      "search": 486,
      "der": 487,
      "ts": 488,
      "io": 489,
      "he": 490,
      "36": 491,
      "redd": 492,
      "amp": 493,
      "ity": 494,
      "og": 495,
      "ob": 496,
      "col": 497,
      "cl": 498,
      "ard": 499,
      "na": 500,
      "ip": 501,
      "are": 502,
      "od": 503,
      "als": 504,
      "34": 505,
      "ack": 506,
      "%83": 507,
      "ateg": 508,
      "35": 509,
      "ge": 510,
      "per": 511,
      "ke": 512,
      "ies": 513,
      "top": 514,
      "eld": 515,
      "gr": 516,
      "ue": 517,
      "%82": 518,
      "37": 519,
      "ant": 520,
      "ber": 521,
      "38": 522,
      "%81": 523,
      "%2C": 524,
      "99": 525,
      "products": 526,
      "ser": 527,
      "mar": 528,
      "az": 529,
      "cat": 530,
      "01": 531,
      "%22": 532,
      "44": 533,
      "21": 534,
      "port": 535,
      "ot": 536,
      "man": 537,
      "ject": 538,
      "56": 539,
      "end": 540,
      "ly": 541,
      "av": 542,
      "39": 543,
      "ev": 544,
      "ass": 545,
      "field": 546,
      "comment": 547,
      "categ": 548,
      "ive": 549,
      "ite": 550,
      "78": 551,
      "46": 552,
      "yo": 553,
      "fa": 554,
      "%E5": 555,
      "asp": 556,
      "%C3": 557,
      "cn": 558,
      "we": 559,
      "sub": 560,
      "cont": 561,
      "pot": 562,
      "%B1": 563,
      "edu": 564,
      "ice": 565,
      "48": 566,
      "list": 567,
      "55": 568,
      "les": 569,
      "des": 570,
      "%7": 571,
      "shop": 572,
      "blogs": 573,
      "su": 574,
      "med": 575,
      "par": 576,
      "mon": 577,
      "76": 578,
      "artic": 579,
      "by": 580,
      "af": 581,
      "49": 582,
      "%80": 583,
      "my": 584,
      "45": 585,
      "%84": 586,
      "02": 587,
      "ame": 588,
      "88": 589,
      "sch": 590,
      "2525": 591,
      "bl": 592,
      "pres": 593,
      "ha": 594,
      "%CE": 595,
      "ba": 596,
      "post": 597,
      "int": 598,
      "bi": 599,
      "ry": 600,
      "ore": 601,
      "equ": 602,
      "vo": 603,
      "if": 604,
      "mat": 605,
      "reddit": 606,
      "75": 607,
      "web": 608,
      "ure": 609,
      "category": 610,
      "book": 611,
      "df": 612,
      "%3D": 613,
      "comments": 614,
      "ka": 615,
      "bu": 616,
      "%B0": 617,
      "79": 618,
      "sa": 619,
      "gu": 620,
      "car": 621,
      "si": 622,
      "ong": 623,
      "66": 624,
      "tail": 625,
      "0000": 626,
      "line": 627,
      "info": 628,
      "blogspot": 629,
      "ny": 630,
      "let": 631,
      "min": 632,
      "%88": 633,
      "val": 634,
      "sc": 635,
      "show": 636,
      "ko": 637,
      "ator": 638,
      "jo": 639,
      "ery": 640,
      "ish": 641,
      "ale": 642,
      "ary": 643,
      "one": 644,
      "ill": 645,
      "cor": 646,
      "%3B": 647,
      "ID": 648,
      "cc": 649,
      "wn": 650,
      "%B9": 651,
      "%7C": 652,
      "ds": 653,
      "del": 654,
      "ans": 655,
      "%BE": 656,
      "ff": 657,
      "equals": 658,
      "pt": 659,
      "47": 660,
      "ick": 661,
      "eu": 662,
      "detail": 663,
      "pa": 664,
      "sid": 665,
      "ell": 666,
      "dis": 667,
      "59": 668,
      "tra": 669,
      "topic": 670,
      "%8C": 671,
      "ash": 672,
      "58": 673,
      "pre": 674,
      "nl": 675,
      "hu": 676,
      "ung": 677,
      "33": 678,
      "ents": 679,
      "%85": 680,
      "auth": 681,
      "pla": 682,
      "sort": 683,
      "100": 684,
      "che": 685,
      "ms": 686,
      "ens": 687,
      "ult": 688,
      "app": 689,
      "und": 690,
      "wh": 691,
      "%B5": 692,
      "lin": 693,
      "ss": 694,
      "mi": 695,
      "77": 696,
      "ace": 697,
      "%B3": 698,
      "pub": 699,
      "ya": 700,
      "subject": 701,
      "ith": 702,
      "%86": 703,
      "%E6": 704,
      "wik": 705,
      "ek": 706,
      "cal": 707,
      "ian": 708,
      "lic": 709,
      "hoto": 710,
      "eng": 711,
      "ign": 712,
      "colle": 713,
      "68": 714,
      "rel": 715,
      "ja": 716,
      "read": 717,
      "69": 718,
      "ational": 719,
      "article": 720,
      "dat": 721,
      "%AF": 722,
      "%D7": 723,
      "author": 724,
      "ud": 725,
      "cz": 726,
      "ind": 727,
      "vide": 728,
      "lu": 729,
      "inter": 730,
      "her": 731,
      "%AA": 732,
      "urn": 733,
      "ye": 734,
      "98": 735,
      "%B2": 736,
      "40": 737,
      "mer": 738,
      "%A4": 739,
      "content": 740,
      "comp": 741,
      "%A8": 742,
      "aspx": 743,
      "sy": 744,
      "%A9": 745,
      "press": 746,
      "photo": 747,
      "online": 748,
      "zh": 749,
      "za": 750,
      "ina": 751,
      "50": 752,
      "coun": 753,
      "land": 754,
      "bb": 755,
      "ep": 756,
      "%87": 757,
      "gen": 758,
      "day": 759,
      "ast": 760,
      "gro": 761,
      "%BA": 762,
      "ni": 763,
      "ec": 764,
      "ks": 765,
      "%BC": 766,
      "ov": 767,
      "ti": 768,
      "act": 769,
      "ki": 770,
      "ust": 771,
      "57": 772,
      "play": 773,
      "%B4": 774,
      "gi": 775,
      "2018": 776,
      "gov": 777,
      "date": 778,
      "fer": 779,
      "get": 780,
      "por": 781,
      "oper": 782,
      "jpg": 783,
      "word": 784,
      "ance": 785,
      "ld": 786,
      "ions": 787,
      "ua": 788,
      "96": 789,
      "2017": 790,
      "met": 791,
      "ug": 792,
      "ics": 793,
      "ica": 794,
      "dr": 795,
      "bro": 796,
      "tw": 797,
      "reg": 798,
      "fre": 799,
      "collection": 800,
      "sport": 801,
      "cy": 802,
      "Id": 803,
      "load": 804,
      "alog": 805,
      "ide": 806,
      "lang": 807,
      "pdf": 808,
      "%8A": 809,
      "2019": 810,
      "%A6": 811,
      "%E7": 812,
      "ys": 813,
      "que": 814,
      "ai": 815,
      "use": 816,
      "job": 817,
      "86": 818,
      "43": 819,
      "ef": 820,
      "with": 821,
      "item": 822,
      "ages": 823,
      "sm": 824,
      "fl": 825,
      "tu": 826,
      "ase": 827,
      "%26": 828,
      "can": 829,
      "89": 830,
      "serv": 831,
      "our": 832,
      "cre": 833,
      "part": 834,
      "cent": 835,
      "ble": 836,
      "gra": 837,
      "lt": 838,
      "cr": 839,
      "ight": 840,
      "ins": 841,
      "31": 842,
      "ings": 843,
      "file": 844,
      "2020": 845,
      "ces": 846,
      "2016": 847,
      "str": 848,
      "filtertype": 849,
      "va": 850,
      "fac": 851,
      "tim": 852,
      "%BB": 853,
      "ital": 854,
      "54": 855,
      "ele": 856,
      "vis": 857,
      "wp": 858,
      "tri": 859,
      "mit": 860,
      "fin": 861,
      "vel": 862,
      "tor": 863,
      "form": 864,
      "ath": 865,
      "ations": 866,
      "sup": 867,
      "ket": 868,
      "%DB": 869,
      "tit": 870,
      "%AD": 871,
      "%d": 872,
      "In": 873,
      "bar": 874,
      "tv": 875,
      "operator": 876,
      "67": 877,
      "pol": 878,
      "32": 879,
      "ach": 880,
      "home": 881,
      "video": 882,
      "doc": 883,
      "tags": 884,
      "not": 885,
      "cial": 886,
      "rom": 887,
      "mem": 888,
      "lig": 889,
      "relational": 890,
      "ton": 891,
      "mode": 892,
      "pi": 893,
      "xt": 894,
      "ino": 895,
      "%CF": 896,
      "mun": 897,
      "ng": 898,
      "iss": 899,
      "wo": 900,
      "cd": 901,
      "87": 902,
      "ial": 903,
      "hi": 904,
      "dire": 905,
      "tru": 906,
      "97": 907,
      "men": 908,
      "bus": 909,
      "ank": 910,
      "65": 911,
      "2013": 912,
      "low": 913,
      "2F": 914,
      "ence": 915,
      "wiki": 916,
      "wat": 917,
      "85": 918,
      "key": 919,
      "ps": 920,
      "ann": 921,
      "gall": 922,
      "%E8": 923,
      "hot": 924,
      "mag": 925,
      "%AE": 926,
      "2014": 927,
      "ets": 928,
      "auto": 929,
      "2021": 930,
      "value": 931,
      "pos": 932,
      "action": 933,
      "ll": 934,
      "%5C": 935,
      "2012": 936,
      "64": 937,
      "tem": 938,
      "kr": 939,
      "cf": 940,
      "ari": 941,
      "forums": 942,
      "order": 943,
      "95": 944,
      "ily": 945,
      "2015": 946,
      "catalog": 947,
      "uc": 948,
      "off": 949,
      "cur": 950,
      "%99": 951,
      "bal": 952,
      "ere": 953,
      "80": 954,
      "thread": 955,
      "60": 956,
      "gre": 957,
      "sol": 958,
      "kt": 959,
      "%A1": 960,
      "2022": 961,
      "ze": 962,
      "public": 963,
      "mus": 964,
      "db": 965,
      "son": 966,
      "ical": 967,
      "any": 968,
      "74": 969,
      "pp": 970,
      "work": 971,
      "wa": 972,
      "cas": 973,
      "Re": 974,
      "hr": 975,
      "ana": 976,
      "84": 977,
      "name": 978,
      "old": 979,
      "stat": 980,
      "how": 981,
      "tech": 982,
      "%B7": 983,
      "gallery": 984,
      "ml": 985,
      "ors": 986,
      "direct": 987,
      "ink": 988,
      "van": 989,
      "ire": 990,
      "bel": 991,
      "%A5": 992,
      "AA": 993,
      "fc": 994,
      "title": 995,
      "spe": 996,
      "%95": 997,
      "earch": 998,
      "Pro": 999,
      "dy": 1000,
      "archive": 1001,
      "user": 1002,
      "ga": 1003,
      "%AC": 1004,
      "rad": 1005,
      "%9C": 1006,
      "store": 1007,
      "cer": 1008,
      "wer": 1009,
      "ives": 1010,
      "94": 1011,
      "cm": 1012,
      "utm": 1013,
      "70": 1014,
      "bd": 1015,
      "%E9": 1016,
      "down": 1017,
      "Ar": 1018,
      "start": 1019,
      "90": 1020,
      "url": 1021,
      "media": 1022,
      "ft": 1023,
      "event": 1024,
      "set": 1025,
      "ster": 1026,
      "year": 1027,
      "ws": 1028,
      "bre": 1029,
      "tre": 1030,
      "ply": 1031,
      "bout": 1032,
      "you": 1033,
      "ual": 1034,
      "its": 1035,
      "%8B": 1036,
      "aa": 1037,
      "ices": 1038,
      "ee": 1039,
      "collections": 1040,
      "group": 1041,
      "sal": 1042,
      "bil": 1043,
      "%A3": 1044,
      "board": 1045,
      "ado": 1046,
      "air": 1047,
      "bc": 1048,
      "har": 1049,
      "sour": 1050,
      "gg": 1051,
      "ven": 1052,
      "out": 1053,
      "ont": 1054,
      "AN": 1055,
      "ich": 1056,
      "from": 1057,
      "ther": 1058,
      "ade": 1059,
      "cam": 1060,
      "open": 1061,
      "ories": 1062,
      "mes": 1063,
      "dig": 1064,
      "42": 1065,
      "den": 1066,
      "ict": 1067,
      "site": 1068,
      "gam": 1069,
      "mu": 1070,
      "53": 1071,
      "hel": 1072,
      "loc": 1073,
      "js": 1074,
      "ada": 1075,
      "light": 1076,
      "cu": 1077,
      "mas": 1078,
      "city": 1079,
      "sw": 1080,
      "%E4": 1081,
      "2023": 1082,
      "2011": 1083,
      "dc": 1084,
      "ile": 1085,
      "ah": 1086,
      "ool": 1087,
      "ste": 1088,
      "world": 1089,
      "ail": 1090,
      "ise": 1091,
      "gal": 1092,
      "bs": 1093,
      "gram": 1094,
      "nor": 1095,
      "pat": 1096,
      "review": 1097,
      "profile": 1098,
      "pers": 1099,
      "urs": 1100,
      "ou": 1101,
      "%EC": 1102,
      "%2B": 1103,
      "edia": 1104,
      "41": 1105,
      "sim": 1106,
      "els": 1107,
      "ull": 1108,
      "ron": 1109,
      "hand": 1110,
      "63": 1111,
      "83": 1112,
      "pan": 1113,
      "login": 1114,
      "ement": 1115,
      "ici": 1116,
      "events": 1117,
      "nik": 1118,
      "ji": 1119,
      "vid": 1120,
      "73": 1121,
      "ger": 1122,
      "gl": 1123,
      "%8F": 1124,
      "wordpress": 1125,
      "51": 1126,
      "iness": 1127,
      "ession": 1128,
      "ition": 1129,
      "%89": 1130,
      "def": 1131,
      "ner": 1132,
      "dd": 1133,
      "93": 1134,
      "alth": 1135,
      "cs": 1136,
      "ews": 1137,
      "ku": 1138,
      "cle": 1139,
      "clo": 1140,
      "ple": 1141,
      "%A0": 1142,
      "ref": 1143,
      "52": 1144,
      "free": 1145,
      "%94": 1146,
      "vn": 1147,
      "ren": 1148,
      "data": 1149,
      "nat": 1150,
      "sto": 1151,
      "aw": 1152,
      "ros": 1153,
      "25252525": 1154,
      "source": 1155,
      "ae": 1156,
      "ute": 1157,
      "club": 1158,
      "bur": 1159,
      "ju": 1160,
      "ange": 1161,
      "san": 1162,
      "able": 1163,
      "ey": 1164,
      "books": 1165,
      "ten": 1166,
      "ize": 1167,
      "000": 1168,
      "2010": 1169,
      "ii": 1170,
      "ker": 1171,
      "desc": 1172,
      "project": 1173,
      "facet": 1174,
      "goog": 1175,
      "ric": 1176,
      "market": 1177,
      "aya": 1178,
      "ress": 1179,
      "ons": 1180,
      "zo": 1181,
      "72": 1182,
      "%C2": 1183,
      "2024": 1184,
      "add": 1185,
      "ret": 1186,
      "AR": 1187,
      "vent": 1188,
      "ler": 1189,
      "ier": 1190,
      "ix": 1191,
      "Com": 1192,
      "tal": 1193,
      "sty": 1194,
      "zy": 1195,
      "commun": 1196,
      "design": 1197,
      "acc": 1198,
      "win": 1199,
      "bor": 1200,
      "han": 1201,
      "hy": 1202,
      "mak": 1203,
      "82": 1204,
      "star": 1205,
      "61": 1206,
      "gy": 1207,
      "%97": 1208,
      "libr": 1209,
      "81": 1210,
      "mal": 1211,
      "box": 1212,
      "%8D": 1213,
      "bet": 1214,
      "hn": 1215,
      "%b": 1216,
      "mp": 1217,
      "class": 1218,
      "ault": 1219,
      "ids": 1220,
      "black": 1221,
      "business": 1222,
      "oc": 1223,
      "pet": 1224,
      "inst": 1225,
      "glo": 1226,
      "%B6": 1227,
      "ib": 1228,
      "mm": 1229,
      "%9F": 1230,
      "jobs": 1231,
      "agen": 1232,
      "ico": 1233,
      "life": 1234,
      "sco": 1235,
      "ama": 1236,
      "lish": 1237,
      "62": 1238,
      "71": 1239,
      "vy": 1240,
      "ES": 1241,
      "image": 1242,
      "google": 1243,
      "now": 1244,
      "%90": 1245,
      "ites": 1246,
      "feed": 1247,
      "ita": 1248,
      "ond": 1249,
      "true": 1250,
      "St": 1251,
      "ata": 1252,
      "camp": 1253,
      "92": 1254,
      "best": 1255,
      "room": 1256,
      "bas": 1257,
      "fu": 1258,
      "%3F": 1259,
      "back": 1260,
      "ky": 1261,
      "ao": 1262,
      "vil": 1263,
      "ban": 1264,
      "%A2": 1265,
      "acion": 1266,
      "ien": 1267,
      "xx": 1268,
      "igh": 1269,
      "los": 1270,
      "live": 1271,
      "chen": 1272,
      "cap": 1273,
      "real": 1274,
      "war": 1275,
      "dan": 1276,
      "lat": 1277,
      "about": 1278,
      "care": 1279,
      "dk": 1280,
      "vol": 1281,
      "xy": 1282,
      "archives": 1283,
      "details": 1284,
      "program": 1285,
      "pen": 1286,
      "ument": 1287,
      "color": 1288,
      "code": 1289,
      "ild": 1290,
      "%e": 1291,
      "download": 1292,
      "format": 1293,
      "ball": 1294,
      "cho": 1295,
      "91": 1296,
      "your": 1297,
      "ley": 1298,
      "ivers": 1299,
      "euro": 1300,
      "ura": 1301,
      "lio": 1302,
      "ype": 1303,
      "files": 1304,
      "health": 1305,
      "articles": 1306,
      "sl": 1307,
      "asc": 1308,
      "gar": 1309,
      "fir": 1310,
      "tt": 1311,
      "but": 1312,
      "aut": 1313,
      "ium": 1314,
      "IN": 1315,
      "ark": 1316,
      "img": 1317,
      "quest": 1318,
      "sur": 1319,
      "%AB": 1320,
      "cha": 1321,
      "Co": 1322,
      "house": 1323,
      "ST": 1324,
      "dio": 1325,
      "ano": 1326,
      "brand": 1327,
      "ena": 1328,
      "sr": 1329,
      "wom": 1330,
      "tool": 1331,
      "bin": 1332,
      "2009": 1333,
      "reply": 1334,
      "%91": 1335,
      "graph": 1336,
      "bf": 1337,
      "print": 1338,
      "vin": 1339,
      "tab": 1340,
      "what": 1341,
      "try": 1342,
      "3d": 1343,
      "main": 1344,
      "las": 1345,
      "ben": 1346,
      "upload": 1347,
      "plan": 1348,
      "cgi": 1349,
      "pes": 1350,
      "watch": 1351,
      "ns": 1352,
      "count": 1353,
      "sta": 1354,
      "3A": 1355,
      "stu": 1356,
      "ams": 1357,
      "pra": 1358,
      "fun": 1359,
      "lan": 1360,
      "max": 1361,
      "library": 1362,
      "ara": 1363,
      "mil": 1364,
      "pap": 1365,
      "mic": 1366,
      "%98": 1367,
      "ear": 1368,
      "uage": 1369,
      "%96": 1370,
      "3D": 1371,
      "kom": 1372,
      "%DA": 1373,
      "ls": 1374,
      "ij": 1375,
      "120": 1376,
      "ning": 1377,
      "num": 1378,
      "nam": 1379,
      "rus": 1380,
      "%9B": 1381,
      "%9A": 1382,
      "Ch": 1383,
      "ures": 1384,
      "ated": 1385,
      "ken": 1386,
      "sports": 1387,
      "char": 1388,
      "query": 1389,
      "amer": 1390,
      "ON": 1391,
      "cb": 1392,
      "ona": 1393,
      "ora": 1394,
      "2025": 1395,
      "tx": 1396,
      "vers": 1397,
      "tar": 1398,
      "music": 1399,
      "nu": 1400,
      "over": 1401,
      "way": 1402,
      "map": 1403,
      "cher": 1404,
      "led": 1405,
      "rist": 1406,
      "unt": 1407,
      "EN": 1408,
      "ea": 1409,
      "cli": 1410,
      "bat": 1411,
      "nd": 1412,
      "%9D": 1413,
      "endar": 1414,
      "zz": 1415,
      "school": 1416,
      "iy": 1417,
      "resour": 1418,
      "link": 1419,
      "game": 1420,
      "peg": 1421,
      "cast": 1422,
      "sex": 1423,
      "sz": 1424,
      "sen": 1425,
      "community": 1426,
      "brow": 1427,
      "lect": 1428,
      "state": 1429,
      "them": 1430,
      "wr": 1431,
      "110": 1432,
      "%EB": 1433,
      "hl": 1434,
      "fb": 1435,
      "Type": 1436,
      "sof": 1437,
      "kon": 1438,
      "digital": 1439,
      "py": 1440,
      "hist": 1441,
      "kar": 1442,
      "tion": 1443,
      "%9E": 1444,
      "uni": 1445,
      "ux": 1446,
      "gs": 1447,
      "blo": 1448,
      "ero": 1449,
      "language": 1450,
      "pc": 1451,
      "kat": 1452,
      "sale": 1453,
      "pal": 1454,
      "hat": 1455,
      "ham": 1456,
      "vest": 1457,
      "lar": 1458,
      "non": 1459,
      "ime": 1460,
      "pad": 1461,
      "hol": 1462,
      "stem": 1463,
      "fam": 1464,
      "story": 1465,
      "rent": 1466,
      "cover": 1467,
      "ines": 1468,
      "default": 1469,
      "movi": 1470,
      "wal": 1471,
      "%E1": 1472,
      "ori": 1473,
      "vet": 1474,
      "uploads": 1475,
      "pu": 1476,
      "person": 1477,
      "lib": 1478,
      "wy": 1479,
      "cro": 1480,
      "ube": 1481,
      "mb": 1482,
      "stre": 1483,
      "logy": 1484,
      "ER": 1485,
      "ities": 1486,
      "viewtopic": 1487,
      "foto": 1488,
      "xn": 1489,
      "member": 1490,
      "pod": 1491,
      "rat": 1492,
      "bab": 1493,
      "ral": 1494,
      "vs": 1495,
      "leg": 1496,
      "photos": 1497,
      "une": 1498,
      "ches": 1499,
      "time": 1500,
      "ults": 1501,
      "month": 1502,
      "a7": 1503,
      "era": 1504,
      "kit": 1505,
      "mx": 1506,
      "jpeg": 1507,
      "arm": 1508,
      "table": 1509,
      "US": 1510,
      "bed": 1511,
      "cia": 1512,
      "tur": 1513,
      "eco": 1514,
      "sil": 1515,
      "services": 1516,
      "mc": 1517,
      "duct": 1518,
      "200": 1519,
      "service": 1520,
      "%d8": 1521,
      "wi": 1522,
      "var": 1523,
      "biz": 1524,
      "ush": 1525,
      "wid": 1526,
      "text": 1527,
      "para": 1528,
      "500": 1529,
      "display": 1530,
      "journ": 1531,
      "oh": 1532,
      "%E2": 1533,
      "lit": 1534,
      "gir": 1535,
      "mod": 1536,
      "test": 1537,
      "good": 1538,
      "conta": 1539,
      "browse": 1540,
      "fd": 1541,
      "kh": 1542,
      "%93": 1543,
      "alb": 1544,
      "OR": 1545,
      "eral": 1546,
      "kan": 1547,
      "ome": 1548,
      "JU": 1549,
      "report": 1550,
      "daily": 1551,
      "ves": 1552,
      "iya": 1553,
      "price": 1554,
      "sci": 1555,
      "cour": 1556,
      "hotel": 1557,
      "ced": 1558,
      "pid": 1559,
      "chi": 1560,
      "wood": 1561,
      "ost": 1562,
      "ow": 1563,
      "help": 1564,
      "portal": 1565,
      "ini": 1566,
      "ran": 1567,
      "bn": 1568,
      "fit": 1569,
      "yu": 1570,
      "week": 1571,
      "trans": 1572,
      "mid": 1573,
      "fal": 1574,
      "hor": 1575,
      "research": 1576,
      "2008": 1577,
      "high": 1578,
      "bra": 1579,
      "cra": 1580,
      "sum": 1581,
      "AT": 1582,
      "images": 1583,
      "cus": 1584,
      "ister": 1585,
      "lot": 1586,
      "redirect": 1587,
      "national": 1588,
      "calendar": 1589,
      "ctor": 1590,
      "hd": 1591,
      "bon": 1592,
      "big": 1593,
      "cid": 1594,
      "ram": 1595,
      "cart": 1596,
      "full": 1597,
      "DE": 1598,
      "pages": 1599,
      "hal": 1600,
      "card": 1601,
      "plus": 1602,
      "%28": 1603,
      "1b": 1604,
      "%29": 1605,
      "tro": 1606,
      "king": 1607,
      "pop": 1608,
      "Res": 1609,
      "4f": 1610,
      "kl": 1611,
      "nes": 1612,
      "JT": 1613,
      "model": 1614,
      "sel": 1615,
      "ika": 1616,
      "pack": 1617,
      "don": 1618,
      "essionid": 1619,
      "hab": 1620,
      "mobi": 1621,
      "nov": 1622,
      "rec": 1623,
      "last": 1624,
      "proper": 1625,
      "acy": 1626,
      "area": 1627,
      "limit": 1628,
      "b2": 1629,
      "zi": 1630,
      "ique": 1631,
      "organ": 1632,
      "food": 1633,
      "ling": 1634,
      "stud": 1635,
      "gif": 1636,
      "bio": 1637,
      "games": 1638,
      "team": 1639,
      "ali": 1640,
      "entry": 1641,
      "edit": 1642,
      "sn": 1643,
      "local": 1644,
      "ship": 1645,
      "din": 1646,
      "elect": 1647,
      "zen": 1648,
      "CE": 1649,
      "bit": 1650,
      "rele": 1651,
      "mor": 1652,
      "jsessionid": 1653,
      "AS": 1654,
      "ris": 1655,
      "125": 1656,
      "hop": 1657,
      "polit": 1658,
      "company": 1659,
      "find": 1660,
      "ento": 1661,
      "country": 1662,
      "rs": 1663,
      "bg": 1664,
      "ates": 1665,
      "300": 1666,
      "region": 1667,
      "ded": 1668,
      "bib": 1669,
      "dev": 1670,
      "ular": 1671,
      "bm": 1672,
      "ople": 1673,
      "eg": 1674,
      "buy": 1675,
      "0c": 1676,
      "a8": 1677,
      "ato": 1678,
      "head": 1679,
      "uth": 1680,
      "stri": 1681,
      "ats": 1682,
      "super": 1683,
      "support": 1684,
      "ami": 1685,
      "rid": 1686,
      "ather": 1687,
      "stor": 1688,
      "pg": 1689,
      "bers": 1690,
      "len": 1691,
      "f1": 1692,
      "AL": 1693,
      "ring": 1694,
      "a6": 1695,
      "inform": 1696,
      "Product": 1697,
      "center": 1698,
      "travel": 1699,
      "ustom": 1700,
      "pri": 1701,
      "shtml": 1702,
      "access": 1703,
      "fact": 1704,
      "kal": 1705,
      "a4": 1706,
      "inc": 1707,
      "%92": 1708,
      "fan": 1709,
      "ific": 1710,
      "ones": 1711,
      "ford": 1712,
      "tes": 1713,
      "dir": 1714,
      "guide": 1715,
      "ters": 1716,
      "%8E": 1717,
      "contact": 1718,
      "indu": 1719,
      "album": 1720,
      "tele": 1721,
      "style": 1722,
      "yout": 1723,
      "iver": 1724,
      "shir": 1725,
      "lex": 1726,
      "sam": 1727,
      "ener": 1728,
      "bir": 1729,
      "miss": 1730,
      "lya": 1731,
      "lay": 1732,
      "indi": 1733,
      "c3": 1734,
      "look": 1735,
      "cel": 1736,
      "mail": 1737,
      "tour": 1738,
      "tain": 1739,
      "medium": 1740,
      "journal": 1741,
      "210": 1742,
      "document": 1743,
      "velo": 1744,
      "ges": 1745,
      "Search": 1746,
      "green": 1747,
      "enter": 1748,
      "liv": 1749,
      "png": 1750,
      "size": 1751,
      "stra": 1752,
      "kin": 1753,
      "stock": 1754,
      "just": 1755,
      "stru": 1756,
      "c1": 1757,
      "videos": 1758,
      "a9": 1759,
      "system": 1760,
      "handle": 1761,
      "att": 1762,
      "ural": 1763,
      "00000000": 1764,
      "RE": 1765,
      "oz": 1766,
      "white": 1767,
      "lad": 1768,
      "tax": 1769,
      "node": 1770,
      "Page": 1771,
      "uz": 1772,
      "a5": 1773,
      "ane": 1774,
      "like": 1775,
      "gold": 1776,
      "ident": 1777,
      "sing": 1778,
      "orig": 1779,
      "c2": 1780,
      "magaz": 1781,
      "aj": 1782,
      "showthread": 1783,
      "For": 1784,
      "ert": 1785,
      "fri": 1786,
      "sv": 1787,
      "foot": 1788,
      "results": 1789,
      "ting": 1790,
      "b3": 1791,
      "has": 1792,
      "edd": 1793,
      "mobile": 1794,
      "zd": 1795,
      "4d": 1796,
      "exper": 1797,
      "return": 1798,
      "usa": 1799,
      "global": 1800,
      "cord": 1801,
      "posit": 1802,
      "law": 1803,
      "lam": 1804,
      "topics": 1805,
      "md": 1806,
      "cult": 1807,
      "Item": 1808,
      "ments": 1809,
      "pin": 1810,
      "kn": 1811,
      "term": 1812,
      "ety": 1813,
      "ucp": 1814,
      "mad": 1815,
      "tid": 1816,
      "rock": 1817,
      "soci": 1818,
      "visor": 1819,
      "Review": 1820,
      "ater": 1821,
      "sign": 1822,
      "gb": 1823,
      "An": 1824,
      "band": 1825,
      "mark": 1826,
      "homes": 1827,
      "ene": 1828,
      "power": 1829,
      "cab": 1830,
      "Col": 1831,
      "asy": 1832,
      "who": 1833,
      "oo": 1834,
      "978": 1835,
      "icias": 1836,
      "bag": 1837,
      "Is": 1838,
      "film": 1839,
      "burg": 1840,
      "ike": 1841,
      "custom": 1842,
      "jsp": 1843,
      "bol": 1844,
      "activ": 1845,
      "1d": 1846,
      "ode": 1847,
      "prof": 1848,
      "ork": 1849,
      "400": 1850,
      "location": 1851,
      "manag": 1852,
      "ican": 1853,
      "nye": 1854,
      "refer": 1855,
      "mac": 1856,
      "mt": 1857,
      "dlya": 1858,
      "feat": 1859,
      "Art": 1860,
      "ason": 1861,
      "a2": 1862,
      "stand": 1863,
      "nz": 1864,
      "pref": 1865,
      "ness": 1866,
      "people": 1867,
      "mis": 1868,
      "hk": 1869,
      "india": 1870,
      "die": 1871,
      "b5": 1872,
      "uch": 1873,
      "PS": 1874,
      "ake": 1875,
      "ask": 1876,
      "mir": 1877,
      "220": 1878,
      "mel": 1879,
      "AC": 1880,
      "4e": 1881,
      "may": 1882,
      "wall": 1883,
      "ville": 1884,
      "sun": 1885,
      "water": 1886,
      "plo": 1887,
      "f8": 1888,
      "b8": 1889,
      "Det": 1890,
      "words": 1891,
      "fq": 1892,
      "Vi": 1893,
      "ario": 1894,
      "ador": 1895,
      "c6": 1896,
      "she": 1897,
      "ati": 1898,
      "tex": 1899,
      "reviews": 1900,
      "f6": 1901,
      "rol": 1902,
      "ips": 1903,
      "space": 1904,
      "vod": 1905,
      "priv": 1906,
      "CO": 1907,
      "sin": 1908,
      "c5": 1909,
      "roll": 1910,
      "c9": 1911,
      "123": 1912,
      "series": 1913,
      "ays": 1914,
      "Un": 1915,
      "motor": 1916,
      "ione": 1917,
      "atta": 1918,
      "DA": 1919,
      "under": 1920,
      "fol": 1921,
      "bot": 1922,
      "kor": 1923,
      "oy": 1924,
      "love": 1925,
      "0d": 1926,
      "icle": 1927,
      "mart": 1928,
      "vir": 1929,
      "bank": 1930,
      "2007": 1931,
      "fs": 1932,
      "ida": 1933,
      "this": 1934,
      "News": 1935,
      "ax": 1936,
      "b9": 1937,
      "mult": 1938,
      "The": 1939,
      "bes": 1940,
      "101": 1941,
      "blue": 1942,
      "zu": 1943,
      "modu": 1944,
      "c8": 1945,
      "List": 1946,
      "pass": 1947,
      "lv": 1948,
      "idad": 1949,
      "b6": 1950,
      "ping": 1951,
      "more": 1952,
      "tran": 1953,
      "c7": 1954,
      "b7": 1955,
      "dom": 1956,
      "sky": 1957,
      "ago": 1958,
      "nie": 1959,
      "anal": 1960,
      "0e": 1961,
      "f5": 1962,
      "inal": 1963,
      "eri": 1964,
      "less": 1965,
      "option": 1966,
      "105": 1967,
      "admin": 1968,
      "ctions": 1969,
      "mess": 1970,
      "ars": 1971,
      "pon": 1972,
      "cook": 1973,
      "f9": 1974,
      "phone": 1975,
      "a3": 1976,
      "1e": 1977,
      "prim": 1978,
      "artist": 1979,
      "select": 1980,
      "property": 1981,
      "ney": 1982,
      "nas": 1983,
      "%d9": 1984,
      "rl": 1985,
      "Con": 1986,
      "ggle": 1987,
      "jer": 1988,
      "ever": 1989,
      "tel": 1990,
      "label": 1991,
      "una": 1992,
      "f7": 1993,
      "108": 1994,
      "mobil": 1995,
      "aign": 1996,
      "lear": 1997,
      "pag": 1998,
      "side": 1999,
      "west": 2000,
      "ili": 2001,
      "%7B": 2002,
      "inf": 2003,
      "%C4": 2004,
      "2d": 2005,
      "cos": 2006,
      "first": 2007,
      "ito": 2008,
      "long": 2009,
      "%ED": 2010,
      "noticias": 2011,
      "Bo": 2012,
      "CA": 2013,
      "dre": 2014,
      "106": 2015,
      "pas": 2016,
      "CH": 2017,
      "Arch": 2018,
      "ente": 2019,
      "sf": 2020,
      "social": 2021,
      "christ": 2022,
      "raz": 2023,
      "toggle": 2024,
      "flow": 2025,
      "case": 2026,
      "run": 2027,
      "tle": 2028,
      "Name": 2029,
      "host": 2030,
      "nt": 2031,
      "ras": 2032,
      "tern": 2033,
      "radio": 2034,
      "ani": 2035,
      "chat": 2036,
      "arts": 2037,
      "invest": 2038,
      "fm": 2039,
      "erv": 2040,
      "univers": 2041,
      "eta": 2042,
      "campaign": 2043,
      "thes": 2044,
      "publish": 2045,
      "TI": 2046,
      "cp": 2047,
      "women": 2048,
      "sd": 2049,
      "works": 2050,
      "ipedia": 2051,
      "threads": 2052,
      "family": 2053,
      "ain": 2054,
      "hum": 2055,
      "anim": 2056,
      "api": 2057,
      "thing": 2058,
      "door": 2059,
      "104": 2060,
      "itu": 2061,
      "compon": 2062,
      "fran": 2063,
      "cons": 2064,
      "ech": 2065,
      "replyto": 2066,
      "BB": 2067,
      "dam": 2068,
      "150": 2069,
      "dz": 2070,
      "core": 2071,
      "tin": 2072,
      "sti": 2073,
      "f4": 2074,
      "c4": 2075,
      "dl": 2076,
      "2026": 2077,
      "vit": 2078,
      "sg": 2079,
      "LA": 2080,
      "hoo": 2081,
      "TO": 2082,
      "Comment": 2083,
      "ating": 2084,
      "attach": 2085,
      "train": 2086,
      "ror": 2087,
      "Or": 2088,
      "109": 2089,
      "d8": 2090,
      "asi": 2091,
      "categories": 2092,
      "LE": 2093,
      "row": 2094,
      "elle": 2095,
      "own": 2096,
      "china": 2097,
      "far": 2098,
      "bul": 2099,
      "107": 2100,
      "faq": 2101,
      "ues": 2102,
      "replytocom": 2103,
      "oria": 2104,
      "cit": 2105,
      "lab": 2106,
      "tripad": 2107,
      "dest": 2108,
      "tripadvisor": 2109,
      "fon": 2110,
      "kes": 2111,
      "object": 2112,
      "116": 2113,
      "bad": 2114,
      "educ": 2115,
      "fut": 2116,
      "ui": 2117,
      "porn": 2118,
      "bbs": 2119,
      "shar": 2120,
      "115": 2121,
      "ote": 2122,
      "face": 2123,
      "128": 2124,
      "baby": 2125,
      "gor": 2126,
      "uy": 2127,
      "common": 2128,
      "paper": 2129,
      "gan": 2130,
      "ous": 2131,
      "plat": 2132,
      "trad": 2133,
      "pur": 2134,
      "beaut": 2135,
      "eli": 2136,
      "gol": 2137,
      "iction": 2138,
      "dro": 2139,
      "cht": 2140,
      "sites": 2141,
      "history": 2142,
      "ashion": 2143,
      "scri": 2144,
      "ends": 2145,
      "nc": 2146,
      "prin": 2147,
      "Detail": 2148,
      "Hot": 2149,
      "wikipedia": 2150,
      "resource": 2151,
      "118": 2152,
      "taur": 2153,
      "special": 2154,
      "casino": 2155,
      "reci": 2156,
      "PH": 2157,
      "Al": 2158,
      "Spe": 2159,
      "e8": 2160,
      "widget": 2161,
      "publications": 2162,
      "listing": 2163,
      "ala": 2164,
      "View": 2165,
      "vac": 2166,
      "false": 2167,
      "jan": 2168,
      "cin": 2169,
      "IS": 2170,
      "jack": 2171,
      "wel": 2172,
      "acade": 2173,
      "ray": 2174,
      "amaz": 2175,
      "ein": 2176,
      "ware": 2177,
      "ump": 2178,
      "d6": 2179,
      "unit": 2180,
      "tan": 2181,
      "keyword": 2182,
      "ution": 2183,
      "div": 2184,
      "times": 2185,
      "place": 2186,
      "gun": 2187,
      "dia": 2188,
      "nis": 2189,
      "rac": 2190,
      "park": 2191,
      "f3": 2192,
      "conne": 2193,
      "e6": 2194,
      "share": 2195,
      "ides": 2196,
      "det": 2197,
      "ques": 2198,
      "make": 2199,
      "hs": 2200,
      "ira": 2201,
      "pd": 2202,
      "ants": 2203,
      "ury": 2204,
      "well": 2205,
      "graphy": 2206,
      "MT": 2207,
      "lead": 2208,
      "hon": 2209,
      "168": 2210,
      "ped": 2211,
      "cond": 2212,
      "change": 2213,
      "Categ": 2214,
      "shirt": 2215,
      "ards": 2216,
      "information": 2217,
      "e7": 2218,
      "xi": 2219,
      "2000": 2220,
      "next": 2221,
      "119": 2222,
      "check": 2223,
      "e5": 2224,
      "docs": 2225,
      "kur": 2226,
      "e9": 2227,
      "Ex": 2228,
      "cfm": 2229,
      "ior": 2230,
      "ski": 2231,
      "build": 2232,
      "nonce": 2233,
      "mr": 2234,
      "ames": 2235,
      "bay": 2236,
      "flo": 2237,
      "ume": 2238,
      "mach": 2239,
      "msg": 2240,
      "wen": 2241,
      "d9": 2242,
      "dra": 2243,
      "develo": 2244,
      "ison": 2245,
      "fab": 2246,
      "posts": 2247,
      "ember": 2248,
      "ette": 2249,
      "TH": 2250,
      "114": 2251,
      "d3": 2252,
      "mg": 2253,
      "result": 2254,
      "ved": 2255,
      "wil": 2256,
      "kz": 2257,
      "body": 2258,
      "members": 2259,
      "001": 2260,
      "tos": 2261,
      "a0": 2262,
      "ete": 2263,
      "fest": 2264,
      "dv": 2265,
      "zer": 2266,
      "b4": 2267,
      "117": 2268,
      "AND": 2269,
      "f2": 2270,
      "143": 2271,
      "gard": 2272,
      "ord": 2273,
      "berg": 2274,
      "movie": 2275,
      "fect": 2276,
      "250": 2277,
      "rit": 2278,
      "kol": 2279,
      "anti": 2280,
      "sat": 2281,
      "fire": 2282,
      "NE": 2283,
      "resources": 2284,
      "d5": 2285,
      "component": 2286,
      "%7D": 2287,
      "ox": 2288,
      "imgur": 2289,
      "items": 2290,
      "yan": 2291,
      "v1": 2292,
      "d1": 2293,
      "aro": 2294,
      "126": 2295,
      "d7": 2296,
      "hotels": 2297,
      "mini": 2298,
      "pk": 2299,
      "ree": 2300,
      "promo": 2301,
      "master": 2302,
      "135": 2303,
      "pay": 2304,
      "flor": 2305,
      "gin": 2306,
      "129": 2307,
      "hard": 2308,
      "136": 2309,
      "stal": 2310,
      "mand": 2311,
      "ases": 2312,
      "De": 2313,
      "cis": 2314,
      "sand": 2315,
      "jew": 2316,
      "Mo": 2317,
      "aus": 2318,
      "attachment": 2319,
      "Blog": 2320,
      "apps": 2321,
      "player": 2322,
      "ative": 2323,
      "showComment": 2324,
      "pm": 2325,
      "road": 2326,
      "track": 2327,
      "tm": 2328,
      "ern": 2329,
      "nom": 2330,
      "hen": 2331,
      "%C5": 2332,
      "iki": 2333,
      "kw": 2334,
      "fashion": 2335,
      "ism": 2336,
      "cloud": 2337,
      "%F": 2338,
      "register": 2339,
      "lif": 2340,
      "LY": 2341,
      "folio": 2342,
      "vu": 2343,
      "ED": 2344,
      "Port": 2345,
      "mods": 2346,
      "103": 2347,
      "techno": 2348,
      "00000": 2349,
      "gel": 2350,
      "biblio": 2351,
      "ext": 2352,
      "a1": 2353,
      "today": 2354,
      "alo": 2355,
      "uro": 2356,
      "tho": 2357,
      "ally": 2358,
      "town": 2359,
      "gn": 2360,
      "aga": 2361,
      "dh": 2362,
      "onom": 2363,
      "gaz": 2364,
      "forge": 2365,
      "No": 2366,
      "gas": 2367,
      "360": 2368,
      "ils": 2369,
      "iter": 2370,
      "ados": 2371,
      "hp": 2372,
      "138": 2373,
      "ungen": 2374,
      "SID": 2375,
      "used": 2376,
      "raph": 2377,
      "uld": 2378,
      "215": 2379,
      "lik": 2380,
      "roy": 2381,
      "chem": 2382,
      "tom": 2383,
      "phil": 2384,
      "p1": 2385,
      "Mar": 2386,
      "fem": 2387,
      "wpnonce": 2388,
      "plac": 2389,
      "AD": 2390,
      "2006": 2391,
      "icht": 2392,
      "hip": 2393,
      "RO": 2394,
      "3F": 2395,
      "sued": 2396,
      "email": 2397,
      "c0": 2398,
      "swe": 2399,
      "vor": 2400,
      "148": 2401,
      "dress": 2402,
      "manu": 2403,
      "users": 2404,
      "tools": 2405,
      "uri": 2406,
      "yl": 2407,
      "365": 2408,
      "gru": 2409,
      "football": 2410,
      "fig": 2411,
      "ony": 2412,
      "put": 2413,
      "Ro": 2414,
      "finan": 2415,
      "hub": 2416,
      "ese": 2417,
      "UT": 2418,
      "dos": 2419,
      "ema": 2420,
      "sko": 2421,
      "ington": 2422,
      "139": 2423,
      "utions": 2424,
      "parts": 2425,
      "polic": 2426,
      "that": 2427,
      "e3": 2428,
      "1000": 2429,
      "b0": 2430,
      "600": 2431,
      "Pr": 2432,
      "All": 2433,
      "keywords": 2434,
      "projects": 2435,
      "ering": 2436,
      "ense": 2437,
      "fish": 2438,
      "brid": 2439,
      "ful": 2440,
      "127": 2441,
      "ights": 2442,
      "Fil": 2443,
      "office": 2444,
      "plate": 2445,
      "dp": 2446,
      "iro": 2447,
      "223": 2448,
      "europe": 2449,
      "fed": 2450,
      "sell": 2451,
      "New": 2452,
      "f0": 2453,
      "cars": 2454,
      "130": 2455,
      "song": 2456,
      "225": 2457,
      "ival": 2458,
      "path": 2459,
      "oft": 2460,
      "solr": 2461,
      "jor": 2462,
      "cg": 2463,
      "rand": 2464,
      "estate": 2465,
      "kids": 2466,
      "yes": 2467,
      "429": 2468,
      "after": 2469,
      "smart": 2470,
      "interest": 2471,
      "point": 2472,
      "bri": 2473,
      "cks": 2474,
      "pn": 2475,
      "premi": 2476,
      "dot": 2477,
      "mass": 2478,
      "gia": 2479,
      "produkt": 2480,
      "ios": 2481,
      "magazine": 2482,
      "dj": 2483,
      "discover": 2484,
      "Archive": 2485,
      "directory": 2486,
      "island": 2487,
      "ima": 2488,
      "dies": 2489,
      "dog": 2490,
      "rain": 2491,
      "jap": 2492,
      "cad": 2493,
      "224": 2494,
      "ez": 2495,
      "IT": 2496,
      "jet": 2497,
      "UR": 2498,
      "sec": 2499,
      "pie": 2500,
      "andro": 2501,
      "aux": 2502,
      "Mj": 2503,
      "course": 2504,
      "gem": 2505,
      "214": 2506,
      "prod": 2507,
      "will": 2508,
      "marketing": 2509,
      "base": 2510,
      "diff": 2511,
      "section": 2512,
      "mill": 2513,
      "target": 2514,
      "rest": 2515,
      "lag": 2516,
      "%EA": 2517,
      "number": 2518,
      "124": 2519,
      "girl": 2520,
      "tual": 2521,
      "tam": 2522,
      "uv": 2523,
      "eth": 2524,
      "YW": 2525,
      "tn": 2526,
      "engine": 2527,
      "vig": 2528,
      "plic": 2529,
      "137": 2530,
      "pict": 2531,
      "cuss": 2532,
      "OT": 2533,
      "205": 2534,
      "was": 2535,
      "short": 2536,
      "menu": 2537,
      "dar": 2538,
      "bang": 2539,
      "publication": 2540,
      "tick": 2541,
      "217": 2542,
      "tek": 2543,
      "come": 2544,
      "xml": 2545,
      "letter": 2546,
      "xyz": 2547,
      "git": 2548,
      "156": 2549,
      "hair": 2550,
      "via": 2551,
      "fly": 2552,
      "SE": 2553,
      "general": 2554,
      "nr": 2555,
      "stan": 2556,
      "muse": 2557,
      "ales": 2558,
      "216": 2559,
      "chin": 2560,
      "north": 2561,
      "meet": 2562,
      "iva": 2563,
      "umb": 2564,
      "dt": 2565,
      "ela": 2566,
      "know": 2567,
      "network": 2568,
      "chan": 2569,
      "ifi": 2570,
      "kak": 2571,
      "lux": 2572,
      "spir": 2573,
      "218": 2574,
      "qi": 2575,
      "gh": 2576,
      "Pub": 2577,
      "eria": 2578,
      "ska": 2579,
      "tware": 2580,
      "etal": 2581,
      "level": 2582,
      "209": 2583,
      "personal": 2584,
      "illa": 2585,
      "south": 2586,
      "e4": 2587,
      "tk": 2588,
      "b1": 2589,
      "195": 2590,
      "sle": 2591,
      "audio": 2592,
      "adv": 2593,
      "itch": 2594,
      "%d0": 2595,
      "nar": 2596,
      "score": 2597,
      "ility": 2598,
      "145": 2599,
      "john": 2600,
      "208": 2601,
      "english": 2602,
      "CF": 2603,
      "viewforum": 2604,
      "vic": 2605,
      "113": 2606,
      "AB": 2607,
      "prote": 2608,
      "tis": 2609,
      "call": 2610,
      "252F": 2611,
      "pli": 2612,
      "rd": 2613,
      "aff": 2614,
      "pour": 2615,
      "vb": 2616,
      "ners": 2617,
      "naya": 2618,
      "158": 2619,
      "sar": 2620,
      "206": 2621,
      "204": 2622,
      "sus": 2623,
      "made": 2624,
      "ized": 2625,
      "rss": 2626,
      "county": 2627,
      "By": 2628,
      "nia": 2629,
      "ads": 2630,
      "xin": 2631,
      "Category": 2632,
      "ante": 2633,
      "depart": 2634,
      "vas": 2635,
      "mens": 2636,
      "149": 2637,
      "studio": 2638,
      "imo": 2639,
      "fc2": 2640,
      "culture": 2641,
      "cir": 2642,
      "decor": 2643,
      "ivo": 2644,
      "%D5": 2645,
      "lock": 2646,
      "street": 2647,
      "159": 2648,
      "reen": 2649,
      "jd": 2650,
      "hash": 2651,
      "lip": 2652,
      "international": 2653,
      "simple": 2654,
      "beauty": 2655,
      "sey": 2656,
      "istr": 2657,
      "demo": 2658,
      "134": 2659,
      "cele": 2660,
      "wan": 2661,
      "account": 2662,
      "windo": 2663,
      "trade": 2664,
      "lass": 2665,
      "facets": 2666,
      "portfolio": 2667,
      "wear": 2668,
      "haber": 2669,
      "reposit": 2670,
      "Se": 2671,
      "pic": 2672,
      "apple": 2673,
      "front": 2674,
      "happ": 2675,
      "rpp": 2676,
      "219": 2677,
      "youtube": 2678,
      "season": 2679,
      "education": 2680,
      "He": 2681,
      "d4": 2682,
      "porno": 2683,
      "portlet": 2684,
      "147": 2685,
      "imedia": 2686,
      "ille": 2687,
      "%e0": 2688,
      "deal": 2689,
      "155": 2690,
      "mn": 2691,
      "mix": 2692,
      "146": 2693,
      "edding": 2694,
      "cours": 2695,
      "cut": 2696,
      "mot": 2697,
      "oro": 2698,
      "cla": 2699,
      "uid": 2700,
      "To": 2701,
      "SU": 2702,
      "arena": 2703,
      "ption": 2704,
      "e1": 2705,
      "iti": 2706,
      "d0": 2707,
      "zn": 2708,
      "DB": 2709,
      "grad": 2710,
      "166": 2711,
      "AG": 2712,
      "east": 2713,
      "fort": 2714,
      "other": 2715,
      "aren": 2716,
      "record": 2717,
      "rum": 2718,
      "eds": 2719,
      "epis": 2720,
      "165": 2721,
      "iel": 2722,
      "hem": 2723,
      "140": 2724,
      "wl": 2725,
      "vr": 2726,
      "d2": 2727,
      "ige": 2728,
      "mission": 2729,
      "lon": 2730,
      "ZW": 2731,
      "D0": 2732,
      "dep": 2733,
      "imes": 2734,
      "Url": 2735,
      "jj": 2736,
      "iao": 2737,
      "En": 2738,
      "iture": 2739,
      "v2": 2740,
      "entre": 2741,
      "AM": 2742,
      "kg": 2743,
      "Au": 2744,
      "uments": 2745,
      "Le": 2746,
      "ider": 2747,
      "secur": 2748,
      "Qu": 2749,
      "dru": 2750,
      "fair": 2751,
      "eter": 2752,
      "cross": 2753,
      "request": 2754,
      "acao": 2755,
      "lace": 2756,
      "audi": 2757,
      "%27": 2758,
      "565": 2759,
      "accessories": 2760,
      "hb": 2761,
      "211": 2762,
      "wis": 2763,
      "Itemid": 2764,
      "ido": 2765,
      "slo": 2766,
      "cry": 2767,
      "toolforge": 2768,
      "tai": 2769,
      "AAAA": 2770,
      "ffe": 2771,
      "157": 2772,
      "rc": 2773,
      "commer": 2774,
      "destin": 2775,
      "lim": 2776,
      "chu": 2777,
      "ND": 2778,
      "shi": 2779,
      "File": 2780,
      "yn": 2781,
      "ports": 2782,
      "discuss": 2783,
      "status": 2784,
      "NT": 2785,
      "ization": 2786,
      "Dis": 2787,
      "pil": 2788,
      "eni": 2789,
      "207": 2790,
      "800": 2791,
      "144": 2792,
      "ugh": 2793,
      "163": 2794,
      "mont": 2795,
      "iday": 2796,
      "central": 2797,
      "management": 2798,
      "1111": 2799,
      "pac": 2800,
      "FF": 2801,
      "BlogArchive": 2802,
      "medi": 2803,
      "dur": 2804,
      "itor": 2805,
      "sb": 2806,
      "160": 2807,
      "kam": 2808,
      "lg": 2809,
      "chil": 2810,
      "gran": 2811,
      "single": 2812,
      "Issued": 2813,
      "gener": 2814,
      "novo": 2815,
      "178": 2816,
      "199": 2817,
      "yahoo": 2818,
      "geo": 2819,
      "dateIssued": 2820,
      "188": 2821,
      "furn": 2822,
      "movies": 2823,
      "fen": 2824,
      "tok": 2825,
      "eries": 2826,
      "icia": 2827,
      "fast": 2828,
      "e2": 2829,
      "175": 2830,
      "fund": 2831,
      "ESSID": 2832,
      "fel": 2833,
      "169": 2834,
      "his": 2835,
      "quick": 2836,
      "bak": 2837,
      "IC": 2838,
      "expl": 2839,
      "247": 2840,
      "Article": 2841,
      "break": 2842,
      "tut": 2843,
      "2C": 2844,
      "lia": 2845,
      "opt": 2846,
      "internet": 2847,
      "176": 2848,
      "kos": 2849,
      "255": 2850,
      "ental": 2851,
      "lis": 2852,
      "Cat": 2853,
      "MD": 2854,
      "nh": 2855,
      "aria": 2856,
      "PHPS": 2857,
      "Bl": 2858,
      "why": 2859,
      "Date": 2860,
      "ming": 2861,
      "tips": 2862,
      "2005": 2863,
      "tat": 2864,
      "PHPSESSID": 2865,
      "Reviews": 2866,
      "180": 2867,
      "bt": 2868,
      "training": 2869,
      "hom": 2870,
      "annel": 2871,
      "message": 2872,
      "colo": 2873,
      "cot": 2874,
      "102": 2875,
      "tyle": 2876,
      "garden": 2877,
      "pun": 2878,
      "metal": 2879,
      "cand": 2880,
      "167": 2881,
      "ague": 2882,
      "sem": 2883,
      "bran": 2884,
      "dm": 2885,
      "pix": 2886,
      "oi": 2887,
      "only": 2888,
      "pel": 2889,
      "france": 2890,
      "aid": 2891,
      "have": 2892,
      "chap": 2893,
      "bud": 2894,
      "boy": 2895,
      "bla": 2896,
      "clean": 2897,
      "ald": 2898,
      "jav": 2899,
      "cycle": 2900,
      "chang": 2901,
      "3B": 2902,
      "ave": 2903,
      "Im": 2904,
      "commons": 2905,
      "qt": 2906,
      "restaur": 2907,
      "wash": 2908,
      "money": 2909,
      "xs": 2910,
      "198": 2911,
      "farm": 2912,
      "original": 2913,
      "craft": 2914,
      "erie": 2915,
      "133": 2916,
      "cio": 2917,
      "Ad": 2918,
      "see": 2919,
      "Special": 2920,
      "mk": 2921,
      "micro": 2922,
      "189": 2923,
      "questions": 2924,
      "186": 2925,
      "android": 2926,
      "girls": 2927,
      "ires": 2928,
      "yr": 2929,
      "aries": 2930,
      "lap": 2931,
      "jun": 2932,
      "e0": 2933,
      "active": 2934,
      "night": 2935,
      "ZX": 2936,
      "filters": 2937,
      "bis": 2938,
      "185": 2939,
      "Csid": 2940,
      "match": 2941,
      "newreply": 2942,
      "aci": 2943,
      "kel": 2944,
      "pair": 2945,
      "dem": 2946,
      "lie": 2947,
      "179": 2948,
      "WAR": 2949,
      "256": 2950,
      "EC": 2951,
      "154": 2952,
      "soft": 2953,
      "grand": 2954,
      "moder": 2955,
      "187": 2956,
      "bun": 2957,
      "ograph": 2958,
      "dn": 2959,
      "grat": 2960,
      "%e3": 2961,
      "Jo": 2962,
      "exact": 2963,
      "quot": 2964,
      "mos": 2965,
      "preview": 2966,
      "party": 2967,
      "Car": 2968,
      "BD": 2969,
      "boo": 2970,
      "2f": 2971,
      "qual": 2972,
      "actual": 2973,
      "kre": 2974,
      "pool": 2975,
      "177": 2976,
      "small": 2977,
      "connect": 2978,
      "och": 2979,
      "%3E": 2980,
      "ills": 2981,
      "305": 2982,
      "japan": 2983,
      "ades": 2984,
      "friend": 2985,
      "isi": 2986,
      "ender": 2987,
      "lou": 2988,
      "cru": 2989,
      "INST": 2990,
      "college": 2991,
      "server": 2992,
      "bj": 2993,
      "ences": 2994,
      "nel": 2995,
      "EX": 2996,
      "308": 2997,
      "stream": 2998,
      "uj": 2999,
      "hc": 3000,
      "inte": 3001,
      "groups": 3002,
      "ila": 3003,
      "stry": 3004,
      "ature": 3005,
      "Hotel": 3006,
      "Sch": 3007,
      "wedding": 3008,
      "xl": 3009,
      "vanced": 3010,
      "womens": 3011,
      "306": 3012,
      "228": 3013,
      "cell": 3014,
      "309": 3015,
      "kie": 3016,
      "fy": 3017,
      "vc": 3018,
      "stories": 3019,
      "living": 3020,
      "software": 3021,
      "afr": 3022,
      "EM": 3023,
      "lete": 3024,
      "uw": 3025,
      "226": 3026,
      "som": 3027,
      "kaz": 3028,
      "tl": 3029,
      "196": 3030,
      "osCsid": 3031,
      "404": 3032,
      "zone": 3033,
      "vision": 3034,
      "lor": 3035,
      "ANCE": 3036,
      "000000": 3037,
      "ament": 3038,
      "dor": 3039,
      "cost": 3040,
      "datas": 3041,
      "von": 3042,
      "fall": 3043,
      "aper": 3044,
      "ely": 3045,
      "science": 3046,
      "YX": 3047,
      "american": 3048,
      "nut": 3049,
      "kra": 3050,
      "subjects": 3051,
      "User": 3052,
      "ements": 3053,
      "5B": 3054,
      "gon": 3055,
      "zw": 3056,
      "stone": 3057,
      "rich": 3058,
      "197": 3059,
      "SP": 3060,
      "talk": 3061,
      "DF": 3062,
      "pau": 3063,
      "zak": 3064,
      "zx": 3065,
      "saf": 3066,
      "uter": 3067,
      "ged": 3068,
      "pred": 3069,
      "164": 3070,
      "Man": 3071,
      "zap": 3072,
      "selected": 3073,
      "deli": 3074,
      "das": 3075,
      "wit": 3076,
      "silver": 3077,
      "nen": 3078,
      "203": 3079,
      "artik": 3080,
      "memberlist": 3081,
      "found": 3082,
      "sales": 3083,
      "cms": 3084,
      "%2f": 3085,
      "jes": 3086,
      "weather": 3087,
      "wes": 3088,
      "gur": 3089,
      "bez": 3090,
      "factur": 3091,
      "pf": 3092,
      "hang": 3093,
      "AF": 3094,
      "700": 3095,
      "IM": 3096,
      "two": 3097,
      "instit": 3098,
      "ova": 3099,
      "contra": 3100,
      "erial": 3101,
      "hun": 3102,
      "uss": 3103,
      "europa": 3104,
      "dal": 3105,
      "teach": 3106,
      "304": 3107,
      "website": 3108,
      "258": 3109,
      "erson": 3110,
      "Path": 3111,
      "adi": 3112,
      "ule": 3113,
      "alph": 3114,
      "asia": 3115,
      "clin": 3116,
      "jam": 3117,
      "produk": 3118,
      "kle": 3119,
      "kitchen": 3120,
      "than": 3121,
      "cup": 3122,
      "ondon": 3123,
      "click": 3124,
      "ideas": 3125,
      "mary": 3126,
      "exp": 3127,
      "hit": 3128,
      "security": 3129,
      "EB": 3130,
      "spring": 3131,
      "Show": 3132,
      "On": 3133,
      "Sub": 3134,
      "235": 3135,
      "Be": 3136,
      "307": 3137,
      "heart": 3138,
      "eno": 3139,
      "viet": 3140,
      "kir": 3141,
      "cul": 3142,
      "skin": 3143,
      "rap": 3144,
      "eda": 3145,
      "bras": 3146,
      "236": 3147,
      "IL": 3148,
      "amazon": 3149,
      "vari": 3150,
      "need": 3151,
      "study": 3152,
      "apart": 3153,
      "iler": 3154,
      "stad": 3155,
      "213": 3156,
      "tree": 3157,
      "gt": 3158,
      "medic": 3159,
      "chic": 3160,
      "%23": 3161,
      "maps": 3162,
      "creator": 3163,
      "glass": 3164,
      "days": 3165,
      "kv": 3166,
      "Lo": 3167,
      "proc": 3168,
      "mur": 3169,
      "pul": 3170,
      "amo": 3171,
      "anno": 3172,
      "nap": 3173,
      "wd": 3174,
      "remo": 3175,
      "fuer": 3176,
      "cept": 3177,
      "GV": 3178,
      "Des": 3179,
      "227": 3180,
      "aba": 3181,
      "fore": 3182,
      "goods": 3183,
      "111": 3184,
      "photography": 3185,
      "angel": 3186,
      "CC": 3187,
      "umn": 3188,
      "4a": 3189,
      "squ": 3190,
      "So": 3191,
      "opin": 3192,
      "Code": 3193,
      "bid": 3194,
      "austr": 3195,
      "vat": 3196,
      "fg": 3197,
      "acht": 3198,
      "vill": 3199,
      "station": 3200,
      "agon": 3201,
      "vie": 3202,
      "T00": 3203,
      "sav": 3204,
      "industri": 3205,
      "%a7": 3206,
      "fix": 3207,
      "itter": 3208,
      "238": 3209,
      "uo": 3210,
      "INSTANCE": 3211,
      "hod": 3212,
      "ei": 3213,
      "anda": 3214,
      "229": 3215,
      "very": 3216,
      "5D": 3217,
      "jy": 3218,
      "bik": 3219,
      "fra": 3220,
      "ston": 3221,
      "ista": 3222,
      "coin": 3223,
      "0a": 3224,
      "Li": 3225,
      "nav": 3226,
      "HR": 3227,
      "tum": 3228,
      "212": 3229,
      "diam": 3230,
      "Cont": 3231,
      "finance": 3232,
      "174": 3233,
      "profession": 3234,
      "rank": 3235,
      "hav": 3236,
      "cert": 3237,
      "GF": 3238,
      "aqu": 3239,
      "wm": 3240,
      "hil": 3241,
      "%3C": 3242,
      "imi": 3243,
      "248": 3244,
      "170": 3245,
      "jk": 3246,
      "cool": 3247,
      "mig": 3248,
      "153": 3249,
      "classic": 3250,
      "categor": 3251,
      "259": 3252,
      "999": 3253,
      "aca": 3254,
      "gio": 3255,
      "golf": 3256,
      "plug": 3257,
      "789": 3258,
      "2b": 3259,
      "eo": 3260,
      "239": 3261,
      "kun": 3262,
      "emplo": 3263,
      "BE": 3264,
      "lists": 3265,
      "257": 3266,
      "fur": 3267,
      "york": 3268,
      "RC": 3269,
      "question": 3270,
      "2525252525252525": 3271,
      "tec": 3272,
      "most": 3273,
      "feeds": 3274,
      "locale": 3275,
      "asa": 3276,
      "OD": 3277,
      "pinterest": 3278,
      "uf": 3279,
      "jn": 3280,
      "united": 3281,
      "haus": 3282,
      "cv": 3283,
      "beach": 3284,
      "quote": 3285,
      "249": 3286,
      "cafe": 3287,
      "step": 3288,
      "pit": 3289,
      "2004": 3290,
      "240": 3291,
      "3b": 3292,
      "ando": 3293,
      "246": 3294,
      "ril": 3295,
      "alter": 3296,
      "latest": 3297,
      "Sh": 3298,
      "energy": 3299,
      "cri": 3300,
      "2a": 3301,
      "version": 3302,
      "yi": 3303,
      "km": 3304,
      "pak": 3305,
      "eber": 3306,
      "dw": 3307,
      "qq": 3308,
      "spo": 3309,
      "catid": 3310,
      "alt": 3311,
      "shoes": 3312,
      "furniture": 3313,
      "policy": 3314,
      "pink": 3315,
      "245": 3316,
      "wol": 3317,
      "cil": 3318,
      "theme": 3319,
      "copy": 3320,
      "block": 3321,
      "1c": 3322,
      "pb": 3323,
      "consult": 3324,
      "release": 3325,
      "cong": 3326,
      "ify": 3327,
      "dun": 3328,
      "rim": 3329,
      "Po": 3330,
      "yel": 3331,
      "184": 3332,
      "ured": 3333,
      "uer": 3334,
      "lights": 3335,
      "mann": 3336,
      "ious": 3337,
      "smo": 3338,
      "coup": 3339,
      "technology": 3340,
      "edition": 3341,
      "173": 3342,
      "privacy": 3343,
      "avto": 3344,
      "channel": 3345,
      "src": 3346,
      "IE": 3347,
      "itel": 3348,
      "ccess": 3349,
      "sha": 3350,
      "ores": 3351,
      "fox": 3352,
      "Photo": 3353,
      "nan": 3354,
      "rt": 3355,
      "present": 3356,
      "jar": 3357,
      "dream": 3358,
      "gift": 3359,
      "express": 3360,
      "rose": 3361,
      "america": 3362,
      "katalog": 3363,
      "yt": 3364,
      "gent": 3365,
      "ples": 3366,
      "813": 3367,
      "sten": 3368,
      "OC": 3369,
      "jen": 3370,
      "SV": 3371,
      "wers": 3372,
      "stro": 3373,
      "rics": 3374,
      "1f": 3375,
      "cket": 3376,
      "escor": 3377,
      "Log": 3378,
      "4b": 3379,
      "fla": 3380,
      "dating": 3381,
      "alia": 3382,
      "even": 3383,
      "equip": 3384,
      "courses": 3385,
      "control": 3386,
      "lac": 3387,
      "dec": 3388,
      "aka": 3389,
      "podcast": 3390,
      "hou": 3391,
      "00Z": 3392,
      "redit": 3393,
      "aker": 3394,
      "237": 3395,
      "BA": 3396,
      "My": 3397,
      "isa": 3398,
      "nj": 3399,
      "develop": 3400,
      "112": 3401,
      "kk": 3402,
      "288": 3403,
      "tainment": 3404,
      "gay": 3405,
      "Eng": 3406,
      "moto": 3407,
      "auf": 3408,
      "sea": 3409,
      "yar": 3410,
      "wikimedia": 3411,
      "paris": 3412,
      "nach": 3413,
      "230": 3414,
      "medical": 3415,
      "dq": 3416,
      "yen": 3417,
      "olar": 3418,
      "194": 3419,
      "noe": 3420,
      "resh": 3421,
      "jewel": 3422,
      "champ": 3423,
      "gz": 3424,
      "303": 3425,
      "arab": 3426,
      "shel": 3427,
      "related": 3428,
      "encia": 3429,
      "tak": 3430,
      "265": 3431,
      "ql": 3432,
      "Th": 3433,
      "great": 3434,
      "hunt": 3435,
      "celebr": 3436,
      "vista": 3437,
      "psy": 3438,
      "every": 3439,
      "BC": 3440,
      "bert": 3441,
      "offer": 3442,
      "2c": 3443,
      "geoh": 3444,
      "shopping": 3445,
      "268": 3446,
      "natural": 3447,
      "190": 3448,
      "urch": 3449,
      "aki": 3450,
      "iphone": 3451,
      "nic": 3452,
      "275": 3453,
      "onomy": 3454,
      "roller": 3455,
      "agenda": 3456,
      "Mon": 3457,
      "industry": 3458,
      "bru": 3459,
      "xw": 3460,
      "276": 3461,
      "desk": 3462,
      "266": 3463,
      "chel": 3464,
      "uan": 3465,
      "secre": 3466,
      "1a": 3467,
      "Filter": 3468,
      "bill": 3469,
      "right": 3470,
      "plant": 3471,
      "289": 3472,
      "298": 3473,
      "note": 3474,
      "geohack": 3475,
      "uma": 3476,
      "prefn": 3477,
      "route": 3478,
      "pect": 3479,
      "veh": 3480,
      "stop": 3481,
      "current": 3482,
      "hh": 3483,
      "278": 3484,
      "spot": 3485,
      "285": 3486,
      "updat": 3487,
      "kab": 3488,
      "tb": 3489,
      "ias": 3490,
      "cords": 3491,
      "manufactur": 3492,
      "til": 3493,
      "icks": 3494,
      "rf": 3495,
      "ties": 3496,
      "0A": 3497,
      "El": 3498,
      "manual": 3499,
      "kap": 3500,
      "intage": 3501,
      "legal": 3502,
      "ned": 3503,
      "esta": 3504,
      "utsch": 3505,
      "anie": 3506,
      "neck": 3507,
      "alle": 3508,
      "ension": 3509,
      "sos": 3510,
      "unch": 3511,
      "ending": 3512,
      "ih": 3513,
      "iko": 3514,
      "god": 3515,
      "iso": 3516,
      "sed": 3517,
      "basket": 3518,
      "yy": 3519,
      "iner": 3520,
      "np": 3521,
      "Home": 3522,
      "applic": 3523,
      "icon": 3524,
      "update": 3525,
      "0b": 3526,
      "material": 3527,
      "vert": 3528,
      "umber": 3529,
      "sab": 3530,
      "Portlet": 3531,
      "domain": 3532,
      "uh": 3533,
      "bath": 3534,
      "tc": 3535,
      "dist": 3536,
      "constru": 3537,
      "tg": 3538,
      "mang": 3539,
      "Per": 3540,
      "299": 3541,
      "careers": 3542,
      "icas": 3543,
      "335": 3544,
      "rings": 3545,
      "xxx": 3546,
      "brown": 3547,
      "seo": 3548,
      "Mz": 3549,
      "happy": 3550,
      "ula": 3551,
      "4c": 3552,
      "wing": 3553,
      "kart": 3554,
      "iger": 3555,
      "solutions": 3556,
      "mall": 3557,
      "TR": 3558,
      "nal": 3559,
      "286": 3560,
      "269": 3561,
      "Link": 3562,
      "museum": 3563,
      "grid": 3564,
      "machine": 3565,
      "offic": 3566,
      "oil": 3567,
      "Size": 3568,
      "ruit": 3569,
      "jak": 3570,
      "module": 3571,
      "279": 3572,
      "paint": 3573,
      "eve": 3574,
      "artikel": 3575,
      "oni": 3576,
      "visit": 3577,
      "mp3": 3578,
      "AQ": 3579,
      "mex": 3580,
      "stit": 3581,
      "tas": 3582,
      "pto": 3583,
      "roup": 3584,
      "gover": 3585,
      "mam": 3586,
      "Colle": 3587,
      "nak": 3588,
      "jr": 3589,
      "screen": 3590,
      "dg": 3591,
      "festival": 3592,
      "jin": 3593,
      "ward": 3594,
      "conf": 3595,
      "planet": 3596,
      "bian": 3597,
      "005": 3598,
      "urance": 3599,
      "windows": 3600,
      "fle": 3601,
      "learning": 3602,
      "Key": 3603,
      "lands": 3604,
      "Products": 3605,
      "hold": 3606,
      "405": 3607,
      "334": 3608,
      "popular": 3609,
      "OL": 3610,
      "human": 3611,
      "blu": 3612,
      "steel": 3613,
      "bh": 3614,
      "esp": 3615,
      "bour": 3616,
      "3a": 3617,
      "fav": 3618,
      "xm": 3619,
      "easy": 3620,
      "aks": 3621,
      "277": 3622,
      "entertainment": 3623,
      "ference": 3624,
      "296": 3625,
      "nit": 3626,
      "ander": 3627,
      "sams": 3628,
      "covid": 3629,
      "publisher": 3630,
      "And": 3631,
      "types": 3632,
      "taxonomy": 3633,
      "007": 3634,
      "mance": 3635,
      "At": 3636,
      "nab": 3637,
      "alex": 3638,
      "ym": 3639,
      "338": 3640,
      "skie": 3641,
      "EE": 3642,
      "nyj": 3643,
      "nos": 3644,
      "elli": 3645,
      "kem": 3646,
      "pract": 3647,
      "template": 3648,
      "tz": 3649,
      "orial": 3650,
      "whe": 3651,
      "into": 3652,
      "gos": 3653,
      "234": 3654,
      "ria": 3655,
      "student": 3656,
      "terms": 3657,
      "267": 3658,
      "SC": 3659,
      "hosp": 3660,
      "strateg": 3661,
      "rav": 3662,
      "ictionary": 3663,
      "producto": 3664,
      "het": 3665,
      "NC": 3666,
      "episode": 3667,
      "drive": 3668,
      "sound": 3669,
      "issu": 3670,
      "ske": 3671,
      "FR": 3672,
      "MC": 3673,
      "destination": 3674,
      "Sup": 3675,
      "t5": 3676,
      "Serv": 3677,
      "366": 3678,
      "json": 3679,
      "focus": 3680,
      "SI": 3681,
      "ota": 3682,
      "hua": 3683,
      "Nj": 3684,
      "287": 3685,
      "rot": 3686,
      "gp": 3687,
      "cali": 3688,
      "eh": 3689,
      "advanced": 3690,
      "vip": 3691,
      "lamp": 3692,
      "ground": 3693,
      "sor": 3694,
      "documents": 3695,
      "dong": 3696,
      "compan": 3697,
      "lov": 3698,
      "tee": 3699,
      "anc": 3700,
      "hin": 3701,
      "rp": 3702,
      "Cal": 3703,
      "ella": 3704,
      "295": 3705,
      "using": 3706,
      "pact": 3707,
      "gear": 3708,
      "wu": 3709,
      "cate": 3710,
      "apa": 3711,
      "bk": 3712,
      "ource": 3713,
      "little": 3714,
      "width": 3715,
      "375": 3716,
      "Val": 3717,
      "wang": 3718,
      "jx": 3719,
      "443": 3720,
      "oldid": 3721,
      "Public": 3722,
      "writ": 3723,
      "london": 3724,
      "350": 3725,
      "stats": 3726,
      "activity": 3727,
      "lub": 3728,
      "Gu": 3729,
      "tip": 3730,
      "txt": 3731,
      "sia": 3732,
      "iment": 3733,
      "BF": 3734,
      "canada": 3735,
      "Ho": 3736,
      "geb": 3737,
      "183": 3738,
      "ingen": 3739,
      "itar": 3740,
      "issue": 3741,
      "cape": 3742,
      "Web": 3743,
      "normal": 3744,
      "iones": 3745,
      "joy": 3746,
      "speci": 3747,
      "2e": 3748,
      "contri": 3749,
      "plast": 3750,
      "zhen": 3751,
      "254": 3752,
      "range": 3753,
      "releases": 3754,
      "atel": 3755,
      "iano": 3756,
      "summer": 3757,
      "dai": 3758,
      "lifes": 3759,
      "micros": 3760,
      "Par": 3761,
      "345": 3762,
      "0000000000000000": 3763,
      "logo": 3764,
      "christmas": 3765,
      "hone": 3766,
      "fx": 3767,
      "264": 3768,
      "wish": 3769,
      "EF": 3770,
      "thro": 3771,
      "modern": 3772,
      "AP": 3773,
      "Tra": 3774,
      "where": 3775,
      "sitem": 3776,
      "poly": 3777,
      "348": 3778,
      "uly": 3779,
      "kov": 3780,
      "hide": 3781,
      "expert": 3782,
      "ania": 3783,
      "202": 3784,
      "DC": 3785,
      "league": 3786,
      "position": 3787,
      "xia": 3788,
      "lines": 3789,
      "university": 3790,
      "ude": 3791,
      "dark": 3792,
      "bund": 3793,
      "ebe": 3794,
      "900": 3795,
      "kim": 3796,
      "SH": 3797,
      "pho": 3798,
      "kateg": 3799,
      "zel": 3800,
      "vintage": 3801,
      "lk": 3802,
      "gri": 3803,
      "rooms": 3804,
      "Reg": 3805,
      "vt": 3806,
      "liber": 3807,
      "iten": 3808,
      "bow": 3809,
      "406": 3810,
      "teen": 3811,
      "modules": 3812,
      "send": 3813,
      "121": 3814,
      "Inter": 3815,
      "did": 3816,
      "labor": 3817,
      "linux": 3818,
      "perio": 3819,
      "boutique": 3820,
      "eme": 3821,
      "297": 3822,
      "WS": 3823,
      "eti": 3824,
      "cture": 3825,
      "extra": 3826,
      "georg": 3827,
      "centre": 3828,
      "403": 3829,
      "888": 3830,
      "metro": 3831,
      "igo": 3832,
      "stav": 3833,
      "answer": 3834,
      "bw": 3835,
      "econom": 3836,
      "nyy": 3837,
      "ismo": 3838,
      "uble": 3839,
      "lp": 3840,
      "bell": 3841,
      "aug": 3842,
      "fant": 3843,
      "lc": 3844,
      "356": 3845,
      "phys": 3846,
      "qa": 3847,
      "wine": 3848,
      "looking": 3849,
      "when": 3850,
      "shu": 3851,
      "GU": 3852,
      "MON": 3853,
      "fis": 3854,
      "193": 3855,
      "yer": 3856,
      "122": 3857,
      "inger": 3858,
      "como": 3859,
      "368": 3860,
      "358": 3861,
      "nih": 3862,
      "tery": 3863,
      "376": 3864,
      "369": 3865,
      "stack": 3866,
      "ais": 3867,
      "ola": 3868,
      "jas": 3869,
      "nn": 3870,
      "thew": 3871,
      "dian": 3872,
      "race": 3873,
      "zon": 3874,
      "noticia": 3875,
      "3c": 3876,
      "Coun": 3877,
      "david": 3878,
      "kup": 3879,
      "save": 3880,
      "opac": 3881,
      "Fo": 3882,
      "pus": 3883,
      "409": 3884,
      "gm": 3885,
      "aging": 3886,
      "lav": 3887,
      "Nor": 3888,
      "eto": 3889,
      "boards": 3890,
      "zes": 3891,
      "gate": 3892,
      "perfor": 3893,
      "archiv": 3894,
      "haw": 3895,
      "fro": 3896,
      "allen": 3897,
      "links": 3898,
      "rio": 3899,
      "MA": 3900,
      "sitemap": 3901,
      "partner": 3902,
      "ench": 3903,
      "trib": 3904,
      "Pol": 3905,
      "coffe": 3906,
      "avi": 3907,
      "wei": 3908,
      "006": 3909,
      "355": 3910,
      "eur": 3911,
      "proble": 3912,
      "zar": 3913,
      "client": 3914,
      "zt": 3915,
      "BR": 3916,
      "zip": 3917,
      "378": 3918,
      "development": 3919,
      "aven": 3920,
      "inn": 3921,
      "pure": 3922,
      "edo": 3923,
      "PT": 3924,
      "Book": 3925,
      "floor": 3926,
      "listings": 3927,
      "finder": 3928,
      "OS": 3929,
      "sau": 3930,
      "corpor": 3931,
      "UN": 3932,
      "istan": 3933,
      "ebay": 3934,
      "cen": 3935,
      "GR": 3936,
      "large": 3937,
      "003": 3938,
      "233": 3939,
      "lr": 3940,
      "andre": 3941,
      "253": 3942,
      "ional": 3943,
      "announ": 3944,
      "econo": 3945,
      "nogo": 3946,
      "fic": 3947,
      "iga": 3948,
      "frame": 3949,
      "mate": 3950,
      "wire": 3951,
      "dol": 3952,
      "bau": 3953,
      "winter": 3954,
      "AE": 3955,
      "244": 3956,
      "fat": 3957,
      "p1ai": 3958,
      "jon": 3959,
      "zam": 3960,
      "2003": 3961,
      "cou": 3962,
      "german": 3963,
      "ification": 3964,
      "347": 3965,
      "nyh": 3966,
      "vents": 3967,
      "self": 3968,
      "346": 3969,
      "ln": 3970,
      "ses": 3971,
      "cham": 3972,
      "g1": 3973,
      "II": 3974,
      "rin": 3975,
      "brands": 3976,
      "ASC": 3977,
      "electric": 3978,
      "ole": 3979,
      "wir": 3980,
      "viron": 3981,
      "jour": 3982,
      "%b8": 3983,
      "td": 3984,
      "discussion": 3985,
      "utes": 3986,
      "kno": 3987,
      "liter": 3988,
      "ways": 3989,
      "umin": 3990,
      "AID": 3991,
      "349": 3992,
      "stick": 3993,
      "childr": 3994,
      "ted": 3995,
      "coast": 3996,
      "itas": 3997,
      "apo": 3998,
      "dim": 3999,
      "some": 4000,
      "static": 4001,
      "Info": 4002,
      "papers": 4003,
      "Doc": 4004,
      "optim": 4005,
      "395": 4006,
      "hall": 4007,
      "eller": 4008,
      "oct": 4009,
      "386": 4010,
      "hay": 4011,
      "asset": 4012,
      "379": 4013,
      "whats": 4014,
      "357": 4015,
      "recipes": 4016,
      "kas": 4017,
      "authority": 4018,
      "MS": 4019,
      "inet": 4020,
      "kid": 4021,
      "zs": 4022,
      "uses": 4023,
      "396": 4024,
      "tov": 4025,
      "La": 4026,
      "270": 4027,
      "manager": 4028,
      "follow": 4029,
      "uten": 4030,
      "pis": 4031,
      "navig": 4032,
      "amar": 4033,
      "sig": 4034,
      "ulo": 4035,
      "GB": 4036,
      "academy": 4037,
      "programs": 4038,
      "260": 4039,
      "bq": 4040,
      "aku": 4041,
      "deals": 4042,
      "tickets": 4043,
      "fornia": 4044,
      "Y2": 4045,
      "process": 4046,
      "367": 4047,
      "premium": 4048,
      "Nz": 4049,
      "wild": 4050,
      "orn": 4051,
      "occ": 4052,
      "standard": 4053,
      "398": 4054,
      "ioni": 4055,
      "ability": 4056,
      "lets": 4057,
      "amento": 4058,
      "CD": 4059,
      "Me": 4060,
      "feb": 4061,
      "bai": 4062,
      "aire": 4063,
      "casa": 4064,
      "round": 4065,
      "ML": 4066,
      "does": 4067,
      "brit": 4068,
      "gat": 4069,
      "388": 4070,
      "bao": 4071,
      "359": 4072,
      "333": 4073,
      "408": 4074,
      "uki": 4075,
      "377": 4076,
      "Of": 4077,
      "samsung": 4078,
      "genre": 4079,
      "jos": 4080,
      "002": 4081,
      "lifer": 4082,
      "sit": 4083,
      "hack": 4084,
      "mv": 4085,
      "Dr": 4086,
      "clothing": 4087,
      "itions": 4088,
      "cH": 4089,
      "insurance": 4090,
      "department": 4091,
      "nv": 4092,
      "associ": 4093,
      "building": 4094,
      "sou": 4095,
      "trip": 4096,
      "too": 4097,
      "280": 4098,
      "389": 4099,
      "sie": 4100,
      "roz": 4101,
      "fw": 4102,
      "kult": 4103,
      "jb": 4104,
      "iny": 4105,
      "cdn": 4106,
      "nee": 4107,
      "777": 4108,
      "studi": 4109,
      "ency": 4110,
      "late": 4111,
      "hur": 4112,
      "nation": 4113,
      "iw": 4114,
      "hill": 4115,
      "march": 4116,
      "outdoor": 4117,
      "theb": 4118,
      "LT": 4119,
      "contin": 4120,
      "ught": 4121,
      "aft": 4122,
      "361": 4123,
      "pagen": 4124,
      "kop": 4125,
      "tries": 4126,
      "staff": 4127,
      "past": 4128,
      "004": 4129,
      "tien": 4130,
      "496": 4131,
      "origin": 4132,
      "rug": 4133,
      "emo": 4134,
      "ctors": 4135,
      "141": 4136,
      "onder": 4137,
      "near": 4138,
      "suppli": 4139,
      "LI": 4140,
      "thu": 4141,
      "oma": 4142,
      "Year": 4143,
      "jc": 4144,
      "authors": 4145,
      "385": 4146,
      "kras": 4147,
      "fields": 4148,
      "cards": 4149,
      "N0": 4150,
      "EXT": 4151,
      "comm": 4152,
      "coach": 4153,
      "prog": 4154,
      "arr": 4155,
      "baz": 4156,
      "flash": 4157,
      "lb": 4158,
      "253D": 4159,
      "clip": 4160,
      "multi": 4161,
      "hg": 4162,
      "yd": 4163,
      "dok": 4164,
      "agu": 4165,
      "microsoft": 4166,
      "274": 4167,
      "advent": 4168,
      "mik": 4169,
      "exchange": 4170,
      "electron": 4171,
      "camera": 4172,
      "fli": 4173,
      "career": 4174,
      "cum": 4175,
      "parent": 4176,
      "008": 4177,
      "kb": 4178,
      "clus": 4179,
      "virus": 4180,
      "hai": 4181,
      "schools": 4182,
      "jewelry": 4183,
      "deutsch": 4184,
      "MONTH": 4185,
      "3e": 4186,
      "atom": 4187,
      "Off": 4188,
      "lian": 4189,
      "chron": 4190,
      "meta": 4191,
      "lek": 4192,
      "eder": 4193,
      "ilo": 4194,
      "cookies": 4195,
      "tun": 4196,
      "reports": 4197,
      "pip": 4198,
      "tron": 4199,
      "rak": 4200,
      "ober": 4201,
      "spor": 4202,
      "here": 4203,
      "equipment": 4204,
      "issues": 4205,
      "bike": 4206,
      "orio": 4207,
      "243": 4208,
      "px": 4209,
      "750": 4210,
      "397": 4211,
      "pick": 4212,
      "sak": 4213,
      "pw": 4214,
      "repair": 4215,
      "virtual": 4216,
      "yog": 4217,
      "antes": 4218,
      "things": 4219,
      "ises": 4220,
      "IA": 4221,
      "exam": 4222,
      "court": 4223,
      "onto": 4224,
      "idx": 4225,
      "society": 4226,
      "anner": 4227,
      "Fi": 4228,
      "mug": 4229,
      "fn": 4230,
      "374": 4231,
      "final": 4232,
      "cycl": 4233,
      "oli": 4234,
      "4656": 4235,
      "church": 4236,
      "got": 4237,
      "moun": 4238,
      "richt": 4239,
      "berry": 4240,
      "iving": 4241,
      "liferay": 4242,
      "chair": 4243,
      "politics": 4244,
      "PR": 4245,
      "E5": 4246,
      "iet": 4247,
      "union": 4248,
      "commit": 4249,
      "pir": 4250,
      "ving": 4251,
      "urban": 4252,
      "yk": 4253,
      "grade": 4254,
      "dle": 4255,
      "heim": 4256,
      "esh": 4257,
      "magic": 4258,
      "ativ": 4259,
      "ists": 4260,
      "invent": 4261,
      "rev": 4262,
      "FID": 4263,
      "histor": 4264,
      "force": 4265,
      "330": 4266,
      "Tr": 4267,
      "import": 4268,
      "clear": 4269,
      "guest": 4270,
      "lj": 4271,
      "ebel": 4272,
      "sure": 4273,
      "ween": 4274,
      "FA": 4275,
      "3f": 4276,
      "states": 4277,
      "kore": 4278,
      "MONTHLY": 4279,
      "abc": 4280,
      "131": 4281,
      "151": 4282,
      "zoom": 4283,
      "LC": 4284,
      "407": 4285,
      "lich": 4286,
      "cod": 4287,
      "cing": 4288,
      "slot": 4289,
      "yota": 4290,
      "math": 4291,
      "take": 4292,
      "ift": 4293,
      "nya": 4294,
      "berlin": 4295,
      "gest": 4296,
      "fuck": 4297,
      "prise": 4298,
      "Go": 4299,
      "dataset": 4300,
      "astro": 4301,
      "gaming": 4302,
      "nb": 4303,
      "pts": 4304,
      "6a": 4305,
      "acional": 4306,
      "maz": 4307,
      "mom": 4308,
      "DP": 4309,
      "stain": 4310,
      "555": 4311,
      "say": 4312,
      "tube": 4313,
      "kok": 4314,
      "istration": 4315,
      "places": 4316,
      "sist": 4317,
      "offset": 4318,
      "names": 4319,
      "thet": 4320,
      "nost": 4321,
      "284": 4322,
      "frank": 4323,
      "fitness": 4324,
      "mh": 4325,
      "rate": 4326,
      "views": 4327,
      "gifts": 4328,
      "royal": 4329,
      "toy": 4330,
      "repository": 4331,
      "records": 4332,
      "Top": 4333,
      "vend": 4334,
      "rece": 4335,
      "cade": 4336,
      "young": 4337,
      "atic": 4338,
      "gc": 4339,
      "spl": 4340,
      "bear": 4341,
      "away": 4342,
      "idas": 4343,
      "pictures": 4344,
      "gab": 4345,
      "AV": 4346,
      "pv": 4347,
      "hero": 4348,
      "Login": 4349,
      "387": 4350,
      "irect": 4351,
      "vey": 4352,
      "slides": 4353,
      "320": 4354,
      "cPath": 4355,
      "chapter": 4356,
      "Details": 4357,
      "partners": 4358,
      "iversity": 4359,
      "g2": 4360,
      "ME": 4361,
      "catalogue": 4362,
      "birth": 4363,
      "5c": 4364,
      "294": 4365,
      "novosti": 4366,
      "Do": 4367,
      "logia": 4368,
      "computer": 4369,
      "indian": 4370,
      "jt": 4371,
      "twitter": 4372,
      "OW": 4373,
      "rag": 4374,
      "recipe": 4375,
      "gw": 4376,
      "kho": 4377,
      "agent": 4378,
      "hood": 4379,
      "arth": 4380,
      "session": 4381,
      "alla": 4382,
      "jaz": 4383,
      "geograph": 4384,
      "turn": 4385,
      "future": 4386,
      "Dir": 4387,
      "shire": 4388,
      "storage": 4389,
      "years": 4390,
      "559": 4391,
      "want": 4392,
      "install": 4393,
      "iri": 4394,
      "coffee": 4395,
      "315": 4396,
      "LW": 4397,
      "embed": 4398,
      "texas": 4399,
      "hq": 4400,
      "assist": 4401,
      "310": 4402,
      "woman": 4403,
      "ience": 4404,
      "udo": 4405,
      "jur": 4406,
      "rez": 4407,
      "comun": 4408,
      "399": 4409,
      "ints": 4410,
      "systems": 4411,
      "D1": 4412,
      "areas": 4413,
      "voy": 4414,
      "vier": 4415,
      "jm": 4416,
      "jim": 4417,
      "agram": 4418,
      "him": 4419,
      "istory": 4420,
      "shared": 4421,
      "adas": 4422,
      "brary": 4423,
      "Part": 4424,
      "error": 4425,
      "448": 4426,
      "HM": 4427,
      "rome": 4428,
      "burn": 4429,
      "009": 4430,
      "Te": 4431,
      "holiday": 4432,
      "768": 4433,
      "gala": 4434,
      "roman": 4435,
      "picture": 4436,
      "pedia": 4437,
      "132": 4438,
      "446": 4439,
      "sli": 4440,
      "CL": 4441,
      "445": 4442,
      "think": 4443,
      "301": 4444,
      "speed": 4445,
      "forumdisplay": 4446,
      "companies": 4447,
      "wx": 4448,
      "C3": 4449,
      "lifestyle": 4450,
      "PA": 4451,
      "feature": 4452,
      "financial": 4453,
      "leather": 4454,
      "civ": 4455,
      "grey": 4456,
      "yang": 4457,
      "viewprofile": 4458,
      "aktu": 4459,
      "468": 4460,
      "LAST": 4461,
      "566": 4462,
      "oly": 4463,
      "290": 4464,
      "total": 4465,
      "treat": 4466,
      "icles": 4467,
      "ysis": 4468,
      "jia": 4469,
      "316": 4470,
      "FL": 4471,
      "asse": 4472,
      "uary": 4473,
      "scholar": 4474,
      "features": 4475,
      "saint": 4476,
      "eso": 4477,
      "5b": 4478,
      "nue": 4479,
      "explore": 4480,
      "dien": 4481,
      "vm": 4482,
      "arte": 4483,
      "nag": 4484,
      "458": 4485,
      "countries": 4486,
      "govern": 4487,
      "ries": 4488,
      "spar": 4489,
      "hir": 4490,
      "hm": 4491,
      "459": 4492,
      "ose": 4493,
      "kay": 4494,
      "chester": 4495,
      "5d": 4496,
      "rov": 4497,
      "hospital": 4498,
      "lake": 4499,
      "rz": 4500,
      "OP": 4501,
      "SS": 4502,
      "ape": 4503,
      "vd": 4504,
      "766": 4505,
      "outp": 4506,
      "lus": 4507,
      "dead": 4508,
      "isk": 4509,
      "xe": 4510,
      "450": 4511,
      "inas": 4512,
      "buk": 4513,
      "hid": 4514,
      "Up": 4515,
      "nieu": 4516,
      "graf": 4517,
      "Index": 4518,
      "icy": 4519,
      "avail": 4520,
      "328": 4521,
      "bnb": 4522,
      "magazin": 4523,
      "eden": 4524,
      "stores": 4525,
      "enta": 4526,
      "sider": 4527,
      "newsid": 4528,
      "ono": 4529,
      "dad": 4530,
      "facebook": 4531,
      "dic": 4532,
      "orderby": 4533,
      "formation": 4534,
      "token": 4535,
      "learn": 4536,
      "489": 4537,
      "222": 4538,
      "river": 4539,
      "466": 4540,
      "players": 4541,
      "171": 4542,
      "Ret": 4543,
      "jax": 4544,
      "uto": 4545,
      "archite": 4546,
      "Cur": 4547,
      "keep": 4548,
      "phy": 4549,
      "task": 4550,
      "p2": 4551,
      "advice": 4552,
      "fid": 4553,
      "eff": 4554,
      "four": 4555,
      "villa": 4556,
      "isch": 4557,
      "controller": 4558,
      "tras": 4559,
      "aciones": 4560,
      "10000": 4561,
      "jz": 4562,
      "1z": 4563,
      "488": 4564,
      "5a": 4565,
      "lid": 4566,
      "390": 4567,
      "reference": 4568,
      "cant": 4569,
      "stars": 4570,
      "449": 4571,
      "568": 4572,
      "params": 4573,
      "CT": 4574,
      "nad": 4575,
      "bild": 4576,
      "had": 4577,
      "ross": 4578,
      "469": 4579,
      "ager": 4580,
      "coming": 4581,
      "endo": 4582,
      "A7": 4583,
      "ags": 4584,
      "agency": 4585,
      "Ed": 4586,
      "skaya": 4587,
      "aly": 4588,
      "bridge": 4589,
      "uit": 4590,
      "proje": 4591,
      "Fe": 4592,
      "then": 4593,
      "widgetId": 4594,
      "DES": 4595,
      "323": 4596,
      "467": 4597,
      "080": 4598,
      "akes": 4599,
      "311": 4600,
      "orange": 4601,
      "locations": 4602,
      "Ge": 4603,
      "chain": 4604,
      "m2": 4605,
      "radi": 4606,
      "5f": 4607,
      "324": 4608,
      "exhi": 4609,
      "ett": 4610,
      "inks": 4611,
      "GE": 4612,
      "widgetType": 4613,
      "trading": 4614,
      "cx": 4615,
      "inos": 4616,
      "iq": 4617,
      "grow": 4618,
      "italia": 4619,
      "505": 4620,
      "integr": 4621,
      "cherche": 4622,
      "142": 4623,
      "alk": 4624,
      "alas": 4625,
      "nature": 4626,
      "bac": 4627,
      "fp": 4628,
      "cky": 4629,
      "gust": 4630,
      "329": 4631,
      "gk": 4632,
      "kry": 4633,
      "column": 4634,
      "996": 4635,
      "vance": 4636,
      "niki": 4637,
      "nex": 4638,
      "iches": 4639,
      "fresh": 4640,
      "457": 4641,
      "doll": 4642,
      "%b1": 4643,
      "ungs": 4644,
      "tumbl": 4645,
      "thers": 4646,
      "364": 4647,
      "PL": 4648,
      "cheap": 4649,
      "498": 4650,
      "jw": 4651,
      "G9": 4652,
      "innov": 4653,
      "569": 4654,
      "micha": 4655,
      "rik": 4656,
      "libro": 4657,
      "ENT": 4658,
      "447": 4659,
      "restaurant": 4660,
      "yellow": 4661,
      "istics": 4662,
      "istry": 4663,
      "20210": 4664,
      "486": 4665,
      "intro": 4666,
      "transport": 4667,
      "vironment": 4668,
      "child": 4669,
      "must": 4670,
      "emer": 4671,
      "ccer": 4672,
      "pear": 4673,
      "edi": 4674,
      "gratis": 4675,
      "leaders": 4676,
      "S813": 4677,
      "mine": 4678,
      "S143": 4679,
      "trend": 4680,
      "1234": 4681,
      "325": 4682,
      "Q565": 4683,
      "S4656": 4684,
      "icket": 4685,
      "spa": 4686,
      "sept": 4687,
      "bey": 4688,
      "featured": 4689,
      "quality": 4690,
      "oso": 4691,
      "should": 4692,
      "0x": 4693,
      "credit": 4694,
      "rod": 4695,
      "enie": 4696,
      "Ask": 4697,
      "ische": 4698,
      "Fac": 4699,
      "sul": 4700,
      "fili": 4701,
      "igital": 4702,
      "Order": 4703,
      "contribut": 4704,
      "HT": 4705,
      "toggleopen": 4706,
      "cw": 4707,
      "flu": 4708,
      "clar": 4709,
      "VE": 4710,
      "IR": 4711,
      "152": 4712,
      "designs": 4713,
      "172": 4714,
      "cash": 4715,
      "therap": 4716,
      "5e": 4717,
      "mich": 4718,
      "221": 4719,
      "properties": 4720,
      "313": 4721,
      "doctor": 4722,
      "aud": 4723,
      "010": 4724,
      "B8": 4725,
      "profiles": 4726,
      "adult": 4727,
      "yam": 4728,
      "unter": 4729,
      "rn": 4730,
      "organization": 4731,
      "wet": 4732,
      "xp": 4733,
      "quan": 4734,
      "enz": 4735,
      "friends": 4736,
      "ample": 4737,
      "usic": 4738,
      "compet": 4739,
      "PUT": 4740,
      "cts": 4741,
      "organiz": 4742,
      "corn": 4743,
      "161": 4744,
      "suche": 4745,
      "flower": 4746,
      "ultim": 4747,
      "cker": 4748,
      "zhu": 4749,
      "ited": 4750,
      "567": 4751,
      "Cor": 4752,
      "hw": 4753,
      "valley": 4754,
      "benef": 4755,
      "offers": 4756,
      "8f": 4757,
      "344": 4758,
      "yat": 4759,
      "757": 4760,
      "mast": 4761,
      "rency": 4762,
      "v3": 4763,
      "rm": 4764,
      "497": 4765,
      "796": 4766,
      "354": 4767,
      "cq": 4768,
      "aur": 4769,
      "filtername": 4770,
      "starts": 4771,
      "326": 4772,
      "professional": 4773,
      "oid": 4774,
      "pose": 4775,
      "themes": 4776,
      "We": 4777,
      "raw": 4778,
      "iu": 4779,
      "este": 4780,
      "solar": 4781,
      "495": 4782,
      "San": 4783,
      "buil": 4784,
      "pent": 4785,
      "uel": 4786,
      "zeit": 4787,
      "filterquery": 4788,
      "safety": 4789,
      "igen": 4790,
      "uts": 4791,
      "039": 4792,
      "Cre": 4793,
      "voice": 4794,
      "Content": 4795,
      "washington": 4796,
      "escort": 4797,
      "666": 4798,
      "cao": 4799,
      "datab": 4800,
      "758": 4801,
      "downloads": 4802,
      "shot": 4803,
      "558": 4804,
      "islandora": 4805,
      "iana": 4806,
      "fahr": 4807,
      "340": 4808,
      "airbnb": 4809,
      "sheet": 4810,
      "poli": 4811,
      "cache": 4812,
      "patch": 4813,
      "312": 4814,
      "GI": 4815,
      "cop": 4816,
      "788": 4817,
      "respon": 4818,
      "Color": 4819,
      "1l": 4820,
      "immobil": 4821,
      "flat": 4822,
      "cole": 4823,
      "foro": 4824,
      "shows": 4825,
      "477": 4826,
      "liance": 4827,
      "4x": 4828,
      "cie": 4829,
      "cock": 4830,
      "Result": 4831,
      "394": 4832,
      "oday": 4833,
      "k2": 4834,
      "318": 4835,
      "Ne": 4836,
      "337": 4837,
      "nou": 4838,
      "stell": 4839,
      "element": 4840,
      "thern": 4841,
      "tpro": 4842,
      "ortlet": 4843,
      "hus": 4844,
      "9b": 4845,
      "panel": 4846,
      "487": 4847,
      "enti": 4848,
      "buch": 4849,
      "diamond": 4850,
      "319": 4851,
      "verse": 4852,
      "hong": 4853,
      "2B": 4854,
      "998": 4855,
      "performance": 4856,
      "CI": 4857,
      "phtml": 4858,
      "snow": 4859,
      "chie": 4860,
      "ging": 4861,
      "Fr": 4862,
      "haz": 4863,
      "tmpl": 4864,
      "kot": 4865,
      "duc": 4866,
      "script": 4867,
      "qui": 4868,
      "ende": 4869,
      "lifecycle": 4870,
      "sii": 4871,
      "327": 4872,
      "stein": 4873,
      "private": 4874,
      "384": 4875,
      "collect": 4876,
      "svet": 4877,
      "kil": 4878,
      "fail": 4879,
      "second": 4880,
      "465": 4881,
      "ssim": 4882,
      "returnto": 4883,
      "EA": 4884,
      "798": 4885,
      "ums": 4886,
      "lady": 4887,
      "prodot": 4888,
      "759": 4889,
      "Bar": 4890,
      "chev": 4891,
      "platform": 4892,
      "D9": 4893,
      "lQ": 4894,
      "sj": 4895,
      "bonus": 4896,
      "acces": 4897,
      "0f": 4898,
      "ovo": 4899,
      "2x": 4900,
      "enc": 4901,
      "25252F": 4902,
      "Def": 4903,
      "Rec": 4904,
      "hindi": 4905,
      "xing": 4906,
      "edge": 4907,
      "oku": 4908,
      "brook": 4909,
      "kj": 4910,
      "create": 4911,
      "Loc": 4912,
      "aer": 4913,
      "ystem": 4914,
      "values": 4915,
      "769": 4916,
      "agement": 4917,
      "customer": 4918,
      "vot": 4919,
      "anning": 4920,
      "leri": 4921,
      "shirts": 4922,
      "worth": 4923,
      "bby": 4924,
      "australia": 4925,
      "nm": 4926,
      "provid": 4927,
      "1q": 4928,
      "crit": 4929,
      "786": 4930,
      "earth": 4931,
      "VC": 4932,
      "phpBB": 4933,
      "posting": 4934,
      "instr": 4935,
      "informat": 4936,
      "neu": 4937,
      "rail": 4938,
      "fts": 4939,
      "Lang": 4940,
      "vl": 4941,
      "rue": 4942,
      "sym": 4943,
      "inch": 4944,
      "zg": 4945,
      "toys": 4946,
      "sac": 4947,
      "rou": 4948,
      "nur": 4949,
      "moon": 4950,
      "fied": 4951,
      "zl": 4952,
      "anime": 4953,
      "mundo": 4954,
      "Class": 4955,
      "E6": 4956,
      "dx": 4957,
      "iran": 4958,
      "flex": 4959,
      "join": 4960,
      "hj": 4961,
      "336": 4962,
      "diy": 4963,
      "akt": 4964,
      "construction": 4965,
      "9f": 4966,
      "ablog": 4967,
      "delete": 4968,
      "bug": 4969,
      "distr": 4970,
      "uba": 4971,
      "162": 4972,
      "domin": 4973,
      "soccer": 4974,
      "igan": 4975,
      "atur": 4976,
      "Lod": 4977,
      "192": 4978,
      "R2": 4979,
      "journals": 4980,
      "tet": 4981,
      "rey": 4982,
      "Black": 4983,
      "syn": 4984,
      "557": 4985,
      "Not": 4986,
      "wap": 4987,
      "048": 4988,
      "bible": 4989,
      "fans": 4990,
      "alu": 4991,
      "eres": 4992,
      "vos": 4993,
      "181": 4994,
      "767": 4995,
      "param": 4996,
      "314": 4997,
      "%bd": 4998,
      "ester": 4999,
      "opinion": 5000,
      "police": 5001,
      "buzz": 5002,
      "lum": 5003,
      "aster": 5004,
      "weight": 5005,
      "lyrics": 5006,
      "%09": 5007,
      "commercial": 5008,
      "solid": 5009,
      "317": 5010,
      "ision": 5011,
      "PE": 5012,
      "rv": 5013,
      "787": 5014,
      "ader": 5015,
      "unds": 5016,
      "gene": 5017,
      "double": 5018,
      "ators": 5019,
      "president": 5020,
      "FD": 5021,
      "inde": 5022,
      "480": 5023,
      "secure": 5024,
      "wb": 5025,
      "smith": 5026,
      "voor": 5027,
      "supply": 5028,
      "hout": 5029,
      "capital": 5030,
      "assets": 5031,
      "tumblr": 5032,
      "enci": 5033,
      "empres": 5034,
      "output": 5035,
      "omi": 5036,
      "380": 5037,
      "export": 5038,
      "pharm": 5039,
      "cau": 5040,
      "cdm": 5041,
      "ible": 5042,
      "AU": 5043,
      "boys": 5044,
      "jud": 5045,
      "bundle": 5046,
      "layout": 5047,
      "vocab": 5048,
      "sens": 5049,
      "Med": 5050,
      "prefn1": 5051,
      "wind": 5052,
      "prefv1": 5053,
      "DI": 5054,
      "better": 5055,
      "sian": 5056,
      "046": 5057,
      "brasil": 5058,
      "chart": 5059,
      "firm": 5060,
      "zhi": 5061,
      "%d1": 5062,
      "stvo": 5063,
      "answers": 5064,
      "oce": 5065,
      "categoria": 5066,
      "485": 5067,
      "orld": 5068,
      "semin": 5069,
      "sent": 5070,
      "fj": 5071,
      "uncategor": 5072,
      "booking": 5073,
      "fine": 5074,
      "nieuws": 5075,
      "bags": 5076,
      "797": 5077,
      "eye": 5078,
      "seg": 5079,
      "CB": 5080,
      "icos": 5081,
      "E0": 5082,
      "serie": 5083,
      "dent": 5084,
      "ady": 5085,
      "deep": 5086,
      "2001": 5087,
      "eball": 5088,
      "ece": 5089,
      "056": 5090,
      "conference": 5091,
      "444": 5092,
      "icip": 5093,
      "045": 5094,
      "africa": 5095,
      "370": 5096,
      "oto": 5097,
      "flowers": 5098,
      "anna": 5099,
      "sweet": 5100,
      "302": 5101,
      "iser": 5102,
      "gets": 5103,
      "bing": 5104,
      "E3": 5105,
      "Amer": 5106,
      "wc": 5107,
      "qc": 5108,
      "louis": 5109,
      "produit": 5110,
      "550": 5111,
      "flick": 5112,
      "anstal": 5113,
      "elek": 5114,
      "monitor": 5115,
      "diario": 5116,
      "wide": 5117,
      "NS": 5118,
      "children": 5119,
      "ava": 5120,
      "765": 5121,
      "3R": 5122,
      "application": 5123,
      "commerce": 5124,
      "2002": 5125,
      "corp": 5126,
      "zim": 5127,
      "Pre": 5128,
      "vg": 5129,
      "toyota": 5130,
      "D8": 5131,
      "sao": 5132,
      "vk": 5133,
      "ration": 5134,
      "bam": 5135,
      "esi": 5136,
      "manufacturer": 5137,
      "191": 5138,
      "academic": 5139,
      "uu": 5140,
      "azione": 5141,
      "edule": 5142,
      "sexy": 5143,
      "galaxy": 5144,
      "470": 5145,
      "christian": 5146,
      "xo": 5147,
      "339": 5148,
      "tokyo": 5149,
      "URL": 5150,
      "231": 5151,
      "rick": 5152,
      "experience": 5153,
      "michael": 5154,
      "jersey": 5155,
      "rr": 5156,
      "jab": 5157,
      "span": 5158,
      "MO": 5159,
      "french": 5160,
      "lawy": 5161,
      "ZG": 5162,
      "publi": 5163,
      "DL": 5164,
      "rier": 5165,
      "sq": 5166,
      "aman": 5167,
      "DESC": 5168,
      "obitu": 5169,
      "blan": 5170,
      "ebook": 5171,
      "sap": 5172,
      "auction": 5173,
      "gid": 5174,
      "meeting": 5175,
      "Ac": 5176,
      "enn": 5177,
      "038": 5178,
      "zhong": 5179,
      "fight": 5180,
      "WW": 5181,
      "defin": 5182,
      "lem": 5183,
      "plates": 5184,
      "aco": 5185,
      "appro": 5186,
      "NG": 5187,
      "COM": 5188,
      "Red": 5189,
      "adio": 5190,
      "coll": 5191,
      "hz": 5192,
      "291": 5193,
      "036": 5194,
      "there": 5195,
      "037": 5196,
      "context": 5197,
      "Auth": 5198,
      "jian": 5199,
      "182": 5200,
      "hour": 5201,
      "A4": 5202,
      "flag": 5203,
      "stage": 5204,
      "favor": 5205,
      "PRO": 5206,
      "Bu": 5207,
      "tian": 5208,
      "jose": 5209,
      "sku": 5210,
      "mut": 5211,
      "nike": 5212,
      "997": 5213,
      "factory": 5214,
      "bach": 5215,
      "direction": 5216,
      "jl": 5217,
      "%bf": 5218,
      "085": 5219,
      "rig": 5220,
      "yas": 5221,
      "Gen": 5222,
      "gli": 5223,
      "Number": 5224,
      "tie": 5225,
      "polo": 5226,
      "famil": 5227,
      "kli": 5228,
      "porter": 5229,
      "Mi": 5230,
      "polis": 5231,
      "akers": 5232,
      "gang": 5233,
      "tea": 5234,
      "loss": 5235,
      "zha": 5236,
      "pend": 5237,
      "Sort": 5238,
      "rating": 5239,
      "effect": 5240,
      "fet": 5241,
      "analysis": 5242,
      "secret": 5243,
      "aty": 5244,
      "047": 5245,
      "gad": 5246,
      "quar": 5247,
      "spect": 5248,
      "vist": 5249,
      "iden": 5250,
      "066": 5251,
      "forest": 5252,
      "spiel": 5253,
      "elles": 5254,
      "consum": 5255,
      "ATE": 5256,
      "251": 5257,
      "geek": 5258,
      "profil": 5259,
      "bmw": 5260,
      "474": 5261,
      "8b": 5262,
      "outh": 5263,
      "564": 5264,
      "%8c": 5265,
      "zas": 5266,
      "nin": 5267,
      "spb": 5268,
      "%ce": 5269,
      "slu": 5270,
      "vv": 5271,
      "gx": 5272,
      "abstra": 5273,
      "%af": 5274,
      "recherche": 5275,
      "sek": 5276,
      "9a": 5277,
      "VD": 5278,
      "victor": 5279,
      "suit": 5280,
      "Form": 5281,
      "Ver": 5282,
      "8c": 5283,
      "autor": 5284,
      "Can": 5285,
      "california": 5286,
      "lee": 5287,
      "partic": 5288,
      "mirror": 5289,
      "editions": 5290,
      "wholes": 5291,
      "CN": 5292,
      "variant": 5293,
      "bie": 5294,
      "232": 5295,
      "Display": 5296,
      "idades": 5297,
      "1h": 5298,
      "Pe": 5299,
      "forms": 5300,
      "xu": 5301,
      "cHash": 5302,
      "quotes": 5303,
      "kai": 5304,
      "termin": 5305,
      "racing": 5306,
      "hock": 5307,
      "limited": 5308,
      "unes": 5309,
      "nika": 5310,
      "gil": 5311,
      "pi1": 5312,
      "bird": 5313,
      "WF": 5314,
      "safe": 5315,
      "stamp": 5316,
      "9d": 5317,
      "242": 5318,
      "Data": 5319,
      "realty": 5320,
      "sobre": 5321,
      "OG": 5322,
      "inese": 5323,
      "nacional": 5324,
      "models": 5325,
      "tours": 5326,
      "wishlist": 5327,
      "rh": 5328,
      "foundation": 5329,
      "indones": 5330,
      "035": 5331,
      "presse": 5332,
      "1999": 5333,
      "iff": 5334,
      "jf": 5335,
      "7f": 5336,
      "ugu": 5337,
      "7c": 5338,
      "nau": 5339,
      "chest": 5340,
      "nova": 5341,
      "beat": 5342,
      "9e": 5343,
      "zione": 5344,
      "abil": 5345,
      "bz": 5346,
      "james": 5347,
      "gradu": 5348,
      "8d": 5349,
      "plans": 5350,
      "App": 5351,
      "Hotels": 5352,
      "795": 5353,
      "idade": 5354,
      "notice": 5355,
      "ateur": 5356,
      "Ly": 5357,
      "truck": 5358,
      "rack": 5359,
      "ulty": 5360,
      "ird": 5361,
      "ims": 5362,
      "252": 5363,
      "241": 5364,
      "novel": 5365,
      "flight": 5366,
      "animal": 5367,
      "stin": 5368,
      "8a": 5369,
      "lighting": 5370,
      "785": 5371,
      "cience": 5372,
      "UK": 5373,
      "topLod": 5374,
      "lant": 5375,
      "omen": 5376,
      "impact": 5377,
      "pier": 5378,
      "weekly": 5379,
      "qs": 5380,
      "inspir": 5381,
      "aded": 5382,
      "PC": 5383,
      "poker": 5384,
      "jal": 5385,
      "cancer": 5386,
      "%0A": 5387,
      "gob": 5388,
      "464": 5389,
      "notes": 5390,
      "carol": 5391,
      "sis": 5392,
      "B0": 5393,
      "Il": 5394,
      "corona": 5395,
      "mort": 5396,
      "%F0": 5397,
      "recht": 5398,
      "Bus": 5399,
      "incl": 5400,
      "perfect": 5401,
      "ength": 5402,
      "awards": 5403,
      "gd": 5404,
      "doi": 5405,
      "bien": 5406,
      "eline": 5407,
      "give": 5408,
      "273": 5409,
      "7d": 5410,
      "role": 5411,
      "iron": 5412,
      "bee": 5413,
      "scar": 5414,
      "440": 5415,
      "amin": 5416,
      "abe": 5417,
      "rea": 5418,
      "provin": 5419,
      "edan": 5420,
      "creative": 5421,
      "fabric": 5422,
      "intel": 5423,
      "mind": 5424,
      "fru": 5425,
      "kind": 5426,
      "classifi": 5427,
      "inside": 5428,
      "compare": 5429,
      "anton": 5430,
      "meg": 5431,
      "Group": 5432,
      "995": 5433,
      "descri": 5434,
      "cion": 5435,
      "mexico": 5436,
      "ares": 5437,
      "willi": 5438,
      "mountain": 5439,
      "WV": 5440,
      "working": 5441,
      "076": 5442,
      "FC": 5443,
      "%2A": 5444,
      "agaz": 5445,
      "chet": 5446,
      "9c": 5447,
      "lev": 5448,
      "OM": 5449,
      "nid": 5450,
      "amen": 5451,
      "mia": 5452,
      "FE": 5453,
      "zem": 5454,
      "L2": 5455,
      "sche": 5456,
      "fang": 5457,
      "gul": 5458,
      "040": 5459,
      "ccion": 5460,
      "exblog": 5461,
      "8e": 5462,
      "anstalt": 5463,
      "263": 5464,
      "7b": 5465,
      "Uy": 5466,
      "automat": 5467,
      "7C": 5468,
      "Str": 5469,
      "ential": 5470,
      "Ter": 5471,
      "itz": 5472,
      "kp": 5473,
      "tennis": 5474,
      "freel": 5475,
      "cream": 5476,
      "vio": 5477,
      "deco": 5478,
      "jug": 5479,
      "engineering": 5480,
      "596": 5481,
      "epaper": 5482,
      "A1": 5483,
      "454": 5484,
      "liga": 5485,
      "alib": 5486,
      "isation": 5487,
      "fh": 5488,
      "LS": 5489,
      "atory": 5490,
      "aliz": 5491,
      "ubun": 5492,
      "enews": 5493,
      "nlm": 5494,
      "mount": 5495,
      "quet": 5496,
      "anger": 5497,
      "bron": 5498,
      "apt": 5499,
      "gie": 5500,
      "1m": 5501,
      "address": 5502,
      "infor": 5503,
      "knowled": 5504,
      "anh": 5505,
      "alpha": 5506,
      "nem": 5507,
      "wz": 5508,
      "436": 5509,
      "marke": 5510,
      "Post": 5511,
      "allenge": 5512,
      "font": 5513,
      "campus": 5514,
      "Ob": 5515,
      "counts": 5516,
      "explor": 5517,
      "wie": 5518,
      "honda": 5519,
      "hire": 5520,
      "sne": 5521,
      "ancy": 5522,
      "created": 5523,
      "TX": 5524,
      "realestate": 5525,
      "depend": 5526,
      "ishi": 5527,
      "jh": 5528,
      "venue": 5529,
      "mol": 5530,
      "BlogArchive1": 5531,
      "586": 5532,
      "iste": 5533,
      "crim": 5534,
      "begin": 5535,
      "kis": 5536,
      "411": 5537,
      "recruit": 5538,
      "dvd": 5539,
      "itle": 5540,
      "galerie": 5541,
      "ello": 5542,
      "clinic": 5543,
      "dete": 5544,
      "585": 5545,
      "leon": 5546,
      "osa": 5547,
      "indo": 5548,
      "portun": 5549,
      "cet": 5550,
      "rip": 5551,
      "viewer": 5552,
      "estu": 5553,
      "bibliote": 5554,
      "fz": 5555,
      "dag": 5556,
      "pmc": 5557,
      "City": 5558,
      "mai": 5559,
      "orie": 5560,
      "herald": 5561,
      "7a": 5562,
      "tay": 5563,
      "haten": 5564,
      "thre": 5565,
      "zil": 5566,
      "Results": 5567,
      "YT": 5568,
      "jing": 5569,
      "uncategorized": 5570,
      "noy": 5571,
      "bou": 5572,
      "Site": 5573,
      "Ap": 5574,
      "ody": 5575,
      "golden": 5576,
      "kul": 5577,
      "asian": 5578,
      "updated": 5579,
      "peter": 5580,
      "BL": 5581,
      "UM": 5582,
      "gig": 5583,
      "Ass": 5584,
      "pagename": 5585,
      "cyber": 5586,
      "yon": 5587,
      "Sho": 5588,
      "prov": 5589,
      "060": 5590,
      "g6": 5591,
      "flickr": 5592,
      "nif": 5593,
      "ships": 5594,
      "075": 5595,
      "freed": 5596,
      "068": 5597,
      "tub": 5598,
      "Restaur": 5599,
      "government": 5600,
      "allo": 5601,
      "598": 5602,
      "liqu": 5603,
      "films": 5604,
      "Zm": 5605,
      "forex": 5606,
      "comic": 5607,
      "lun": 5608,
      "string": 5609,
      "onlin": 5610,
      "qy": 5611,
      "death": 5612,
      "olution": 5613,
      "lyn": 5614,
      "2526": 5615,
      "IG": 5616,
      "088": 5617,
      "santa": 5618,
      "cheng": 5619,
      "State": 5620,
      "bull": 5621,
      "prev": 5622,
      "554": 5623,
      "tops": 5624,
      "paul": 5625,
      "natur": 5626,
      "dailyhunt": 5627,
      "RD": 5628,
      "piz": 5629,
      "goto": 5630,
      "696": 5631,
      "cotton": 5632,
      "049": 5633,
      "7e": 5634,
      "students": 5635,
      "BO": 5636,
      "vw": 5637,
      "success": 5638,
      "luxury": 5639,
      "oak": 5640,
      "QU": 5641,
      "trail": 5642,
      "retro": 5643,
      "Ste": 5644,
      "prints": 5645,
      "commod": 5646,
      "quis": 5647,
      "official": 5648,
      "eddit": 5649,
      "agro": 5650,
      "TS": 5651,
      "writing": 5652,
      "oe": 5653,
      "tj": 5654,
      "ables": 5655,
      "1500": 5656,
      "fred": 5657,
      "460": 5658,
      "Min": 5659,
      "abet": 5660,
      "salon": 5661,
      "lak": 5662,
      "E4": 5663,
      "anci": 5664,
      "acle": 5665,
      "pics": 5666,
      "283": 5667,
      "595": 5668,
      "gong": 5669,
      "JP": 5670,
      "production": 5671,
      "solo": 5672,
      "20220": 5673,
      "umi": 5674,
      "Wh": 5675,
      "environment": 5676,
      "ashi": 5677,
      "navigation": 5678,
      "065": 5679,
      "anews": 5680,
      "april": 5681,
      "capt": 5682,
      "anos": 5683,
      "eshop": 5684,
      "086": 5685,
      "dsc": 5686,
      "lui": 5687,
      "050": 5688,
      "aar": 5689,
      "lm": 5690,
      "fotos": 5691,
      "ajax": 5692,
      "discount": 5693,
      "069": 5694,
      "atre": 5695,
      "Act": 5696,
      "kinder": 5697,
      "vz": 5698,
      "ukra": 5699,
      "informationobject": 5700,
      "gle": 5701,
      "096": 5702,
      "Event": 5703,
      "chocol": 5704,
      "bass": 5705,
      "mari": 5706,
      "ngu": 5707,
      "484": 5708,
      "cases": 5709,
      "HR0c": 5710,
      "quil": 5711,
      "ulation": 5712,
      "wed": 5713,
      "senior": 5714,
      "deb": 5715,
      "ticket": 5716,
      "aktual": 5717,
      "bok": 5718,
      "atch": 5719,
      "560": 5720,
      "photograph": 5721,
      "nosti": 5722,
      "werk": 5723,
      "shin": 5724,
      "zin": 5725,
      "imag": 5726,
      "ups": 5727,
      "EL": 5728,
      "wg": 5729,
      "resp": 5730,
      "kc": 5731,
      "currency": 5732,
      "sx": 5733,
      "hes": 5734,
      "058": 5735,
      "materi": 5736,
      "686": 5737,
      "riv": 5738,
      "issan": 5739,
      "vard": 5740,
      "078": 5741,
      "055": 5742,
      "A5": 5743,
      "mond": 5744,
      "teh": 5745,
      "rb": 5746,
      "relevance": 5747,
      "distri": 5748,
      "inventory": 5749,
      "massage": 5750,
      "vak": 5751,
      "ulture": 5752,
      "rabo": 5753,
      "relation": 5754,
      "dictionary": 5755,
      "sir": 5756,
      "naz": 5757,
      "artists": 5758,
      "avy": 5759,
      "fantasy": 5760,
      "Play": 5761,
      "chicago": 5762,
      "interior": 5763,
      "idi": 5764,
      "271": 5765,
      "letin": 5766,
      "zie": 5767,
      "261": 5768,
      "jg": 5769,
      "Tech": 5770,
      "kino": 5771,
      "ternal": 5772,
      "codes": 5773,
      "diet": 5774,
      "ZS": 5775,
      "arta": 5776,
      "E9": 5777,
      "crypto": 5778,
      "workshop": 5779,
      "272": 5780,
      "ikan": 5781,
      "seek": 5782,
      "dynam": 5783,
      "recent": 5784,
      "889": 5785,
      "affili": 5786,
      "dil": 5787,
      "nw": 5788,
      "doma": 5789,
      "wow": 5790,
      "dans": 5791,
      "067": 5792,
      "iller": 5793,
      "vious": 5794,
      "079": 5795,
      "hello": 5796,
      "voz": 5797,
      "pixnet": 5798,
      "dee": 5799,
      "communic": 5800,
      "BN": 5801,
      "nego": 5802,
      "adores": 5803,
      "sys": 5804,
      "arbe": 5805,
      "snap": 5806,
      "jue": 5807,
      "ops": 5808,
      "arenap": 5809,
      "aves": 5810,
      "idos": 5811,
      "boat": 5812,
      "florida": 5813,
      "three": 5814,
      "lil": 5815,
      "schedule": 5816,
      "uku": 5817,
      "western": 5818,
      "ION": 5819,
      "494": 5820,
      "arten": 5821,
      "dont": 5822,
      "aver": 5823,
      "kad": 5824,
      "basic": 5825,
      "Auto": 5826,
      "contents": 5827,
      "597": 5828,
      "099": 5829,
      "mist": 5830,
      "yun": 5831,
      "963": 5832,
      "aHR0c": 5833,
      "viz": 5834,
      "studies": 5835,
      "6b": 5836,
      "poster": 5837,
      "prime": 5838,
      "U5": 5839,
      "ubuntu": 5840,
      "emy": 5841,
      "754": 5842,
      "industrial": 5843,
      "lywood": 5844,
      "essay": 5845,
      "Collection": 5846,
      "touch": 5847,
      "iza": 5848,
      "available": 5849,
      "4u": 5850,
      "coco": 5851,
      "anne": 5852,
      "foo": 5853,
      "chor": 5854,
      "license": 5855,
      "ready": 5856,
      "frag": 5857,
      "589": 5858,
      "opportun": 5859,
      "FB": 5860,
      "CHAN": 5861,
      "drop": 5862,
      "Reddit": 5863,
      "spirit": 5864,
      "DD": 5865,
      "della": 5866,
      "vse": 5867,
      "vehicle": 5868,
      "bei": 5869,
      "iles": 5870,
      "SM": 5871,
      "legacy": 5872,
      "stadt": 5873,
      "tier": 5874,
      "retail": 5875,
      "uta": 5876,
      "1k": 5877,
      "Default": 5878,
      "dry": 5879,
      "NY": 5880,
      "challenge": 5881,
      "hau": 5882,
      "cement": 5883,
      "cisco": 5884,
      "appar": 5885,
      "262": 5886,
      "edes": 5887,
      "keys": 5888,
      "095": 5889,
      "Bas": 5890,
      "chick": 5891,
      "Qy": 5892,
      "cedes": 5893,
      "nail": 5894,
      "launch": 5895,
      "RI": 5896,
      "rub": 5897,
      "logie": 5898,
      "VG": 5899,
      "osh": 5900,
      "281": 5901,
      "cipl": 5902,
      "098": 5903,
      "says": 5904,
      "kus": 5905,
      "islam": 5906,
      "broad": 5907,
      "SK": 5908,
      "bom": 5909,
      "ZT": 5910,
      "mov": 5911,
      "wick": 5912,
      "thai": 5913,
      "delta": 5914,
      "activities": 5915,
      "trump": 5916,
      "lep": 5917,
      "merch": 5918,
      "293": 5919,
      "4r": 5920,
      "cron": 5921,
      "bp": 5922,
      "acer": 5923,
      "driver": 5924,
      "yaz": 5925,
      "livejournal": 5926,
      "apk": 5927,
      "inar": 5928,
      "059": 5929,
      "rew": 5930,
      "886": 5931,
      "668": 5932,
      "annon": 5933,
      "A2": 5934,
      "syl": 5935,
      "ltd": 5936,
      "ultra": 5937,
      "prz": 5938,
      "reading": 5939,
      "Char": 5940,
      "ools": 5941,
      "NEL": 5942,
      "beer": 5943,
      "maker": 5944,
      "madrid": 5945,
      "elf": 5946,
      "cris": 5947,
      "cinema": 5948,
      "iful": 5949,
      "ginia": 5950,
      "North": 5951,
      "brace": 5952,
      "cats": 5953,
      "takt": 5954,
      "horse": 5955,
      "many": 5956,
      "Vol": 5957,
      "komple": 5958,
      "xz": 5959,
      "avec": 5960,
      "Che": 5961,
      "764": 5962,
      "Return": 5963,
      "kro": 5964,
      "olutions": 5965,
      "delivery": 5966,
      "guar": 5967,
      "diary": 5968,
      "grafi": 5969,
      "password": 5970,
      "669": 5971,
      "tot": 5972,
      "plugins": 5973,
      "utz": 5974,
      "abstract": 5975,
      "bos": 5976,
      "wholesale": 5977,
      "youtu": 5978,
      "pand": 5979,
      "interview": 5980,
      "igi": 5981,
      "chast": 5982,
      "arenaportlet": 5983,
      "gv": 5984,
      "070": 5985,
      "agra": 5986,
      "usion": 5987,
      "dell": 5988,
      "sleeve": 5989,
      "mie": 5990,
      "legis": 5991,
      "stuff": 5992,
      "kum": 5993,
      "gq": 5994,
      "rice": 5995,
      "exec": 5996,
      "089": 5997,
      "bott": 5998,
      "tipo": 5999,
      "587": 6000,
      "sele": 6001,
      "077": 6002,
      "NO": 6003,
      "athlet": 6004,
      "folder": 6005,
      "published": 6006,
      "r2": 6007,
      "fron": 6008,
      "PP": 6009,
      "%e5": 6010,
      "welt": 6011,
      "University": 6012,
      "tribute": 6013,
      "490": 6014,
      "nfl": 6015,
      "veranstalt": 6016,
      "410": 6017,
      "boot": 6018,
      "What": 6019,
      "rk": 6020,
      "uke": 6021,
      "667": 6022,
      "differ": 6023,
      "skiy": 6024,
      "Ux": 6025,
      "idu": 6026,
      "6d": 6027,
      "milit": 6028,
      "comics": 6029,
      "cleaning": 6030,
      "wheel": 6031,
      "agi": 6032,
      "343": 6033,
      "welcome": 6034,
      "button": 6035,
      "noj": 6036,
      "uber": 6037,
      "XX": 6038,
      "E2": 6039,
      "designer": 6040,
      "wave": 6041,
      "cable": 6042,
      "383": 6043,
      "iling": 6044,
      "orge": 6045,
      "oke": 6046,
      "iry": 6047,
      "square": 6048,
      "rob": 6049,
      "holic": 6050,
      "0D": 6051,
      "vre": 6052,
      "SW": 6053,
      "Men": 6054,
      "ftp": 6055,
      "noi": 6056,
      "isme": 6057,
      "Subject": 6058,
      "Brand": 6059,
      "moz": 6060,
      "packages": 6061,
      "RT": 6062,
      "abo": 6063,
      "zum": 6064,
      "rental": 6065,
      "sortDir": 6066,
      "RU": 6067,
      "martin": 6068,
      "zab": 6069,
      "794": 6070,
      "rust": 6071,
      "NW": 6072,
      "bury": 6073,
      "057": 6074,
      "usb": 6075,
      "F8": 6076,
      "piece": 6077,
      "delet": 6078,
      "kia": 6079,
      "373": 6080,
      "uli": 6081,
      "through": 6082,
      "CHANNEL": 6083,
      "indonesia": 6084,
      "rix": 6085,
      "tig": 6086,
      "wars": 6087,
      "Yz": 6088,
      "database": 6089,
      "mania": 6090,
      "alibaba": 6091,
      "sant": 6092,
      "erta": 6093,
      "363": 6094,
      "youth": 6095,
      "r1": 6096,
      "beb": 6097,
      "Y3": 6098,
      "mw": 6099,
      "making": 6100,
      "Job": 6101,
      "698": 6102,
      "deck": 6103,
      "odes": 6104,
      "ej": 6105,
      "still": 6106,
      "district": 6107,
      "Rl": 6108,
      "russia": 6109,
      "ffic": 6110,
      "charact": 6111,
      "repositorio": 6112,
      "mega": 6113,
      "520": 6114,
      "ija": 6115,
      "fum": 6116,
      "juni": 6117,
      "tha": 6118,
      "uno": 6119,
      "087": 6120,
      "basketball": 6121,
      "420": 6122,
      "deport": 6123,
      "emon": 6124,
      "hos": 6125,
      "friday": 6126,
      "yard": 6127,
      "alon": 6128,
      "252525252525": 6129,
      "292": 6130,
      "package": 6131,
      "A9": 6132,
      "isra": 6133,
      "eday": 6134,
      "pole": 6135,
      "comune": 6136,
      "emp": 6137,
      "6f": 6138,
      "hao": 6139,
      "pati": 6140,
      "steam": 6141,
      "b2b": 6142,
      "css": 6143,
      "yak": 6144,
      "kow": 6145,
      "doku": 6146,
      "birthday": 6147,
      "enger": 6148,
      "pret": 6149,
      "As": 6150,
      "ordin": 6151,
      "boss": 6152,
      "poz": 6153,
      "3Afield": 6154,
      "nick": 6155,
      "RS": 6156,
      "ING": 6157,
      "282": 6158,
      "concept": 6159,
      "fak": 6160,
      "medicine": 6161,
      "sole": 6162,
      "034": 6163,
      "371": 6164,
      "scope": 6165,
      "%40": 6166,
      "C9": 6167,
      "fas": 6168,
      "thumb": 6169,
      "stva": 6170,
      "unis": 6171,
      "matt": 6172,
      "760": 6173,
      "sier": 6174,
      "Su": 6175,
      "aq": 6176,
      "E7": 6177,
      "maison": 6178,
      "tabs": 6179,
      "Health": 6180,
      "veter": 6181,
      "cac": 6182,
      "unk": 6183,
      "665": 6184,
      "AK": 6185,
      "MW": 6186,
      "dela": 6187,
      "dla": 6188,
      "arma": 6189,
      "viol": 6190,
      "yandex": 6191,
      "1p": 6192,
      "yz": 6193,
      "kla": 6194,
      "E8": 6195,
      "root": 6196,
      "manga": 6197,
      "cow": 6198,
      "697": 6199,
      "mers": 6200,
      "bility": 6201,
      "isen": 6202,
      "vik": 6203,
      "mans": 6204,
      "brief": 6205,
      "cub": 6206,
      "vietnam": 6207,
      "municip": 6208,
      "mosk": 6209,
      "rx": 6210,
      "tap": 6211,
      "dance": 6212,
      "tank": 6213,
      "elekt": 6214,
      "outlet": 6215,
      "yoga": 6216,
      "transfer": 6217,
      "ots": 6218,
      "784": 6219,
      "sht": 6220,
      "TV": 6221,
      "Iw": 6222,
      "Uw": 6223,
      "sear": 6224,
      "Pages": 6225,
      "cara": 6226,
      "Open": 6227,
      "887": 6228,
      "impress": 6229,
      "kong": 6230,
      "alogo": 6231,
      "322": 6232,
      "cine": 6233,
      "A0": 6234,
      "885": 6235,
      "write": 6236,
      "kau": 6237,
      "aber": 6238,
      "telefon": 6239,
      "resort": 6240,
      "hatenablog": 6241,
      "baseball": 6242,
      "bloom": 6243,
      "mz": 6244,
      "Field": 6245,
      "icion": 6246,
      "izen": 6247,
      "iverse": 6248,
      "Access": 6249,
      "097": 6250,
      "6e": 6251,
      "dang": 6252,
      "village": 6253,
      "kurs": 6254,
      "soul": 6255,
      "worl": 6256,
      "sla": 6257,
      "vien": 6258,
      "ebi": 6259,
      "jq": 6260,
      "cities": 6261,
      "vq": 6262,
      "fram": 6263,
      "jay": 6264,
      "790": 6265,
      "441": 6266,
      "vp": 6267,
      "Location": 6268,
      "TW": 6269,
      "United": 6270,
      "pant": 6271,
      "cosmet": 6272,
      "456": 6273,
      "Ln": 6274,
      "iat": 6275,
      "aru": 6276,
      "rer": 6277,
      "demand": 6278,
      "331": 6279,
      "mais": 6280,
      "780": 6281,
      "tplace": 6282,
      "353": 6283,
      "uren": 6284,
      "prom": 6285,
      "dez": 6286,
      "arios": 6287,
      "aan": 6288,
      "allas": 6289,
      "C5": 6290,
      "sector": 6291,
      "walk": 6292,
      "jum": 6293,
      "090": 6294,
      "plain": 6295,
      "swim": 6296,
      "gloss": 6297,
      "fishing": 6298,
      "organic": 6299,
      "dragon": 6300,
      "ambi": 6301,
      "nig": 6302,
      "1998": 6303,
      "switch": 6304,
      "discipl": 6305,
      "gym": 6306,
      "fand": 6307,
      "ieu": 6308,
      "MED": 6309,
      "esa": 6310,
      "ipp": 6311,
      "341": 6312,
      "499": 6313,
      "anz": 6314,
      "%24": 6315,
      "revol": 6316,
      "gers": 6317,
      "disp": 6318,
      "6c": 6319,
      "351": 6320,
      "navi": 6321,
      "insights": 6322,
      "cake": 6323,
      "%b0": 6324,
      "healthy": 6325,
      "citation": 6326,
      "spark": 6327,
      "pam": 6328,
      "vote": 6329,
      "univ": 6330,
      "protection": 6331,
      "A6": 6332,
      "thi": 6333,
      "uters": 6334,
      "argent": 6335,
      "window": 6336,
      "MI": 6337,
      "1n": 6338,
      "queen": 6339,
      "Ni": 6340,
      "herit": 6341,
      "911": 6342,
      "1x": 6343,
      "sony": 6344,
      "trends": 6345,
      "corporate": 6346,
      "esti": 6347,
      "itm": 6348,
      "colour": 6349,
      "AskReddit": 6350,
      "ILY": 6351,
      "687": 6352,
      "A8": 6353,
      "airport": 6354,
      "sad": 6355,
      "History": 6356,
      "hook": 6357,
      "uka": 6358,
      "aces": 6359,
      "NEWS": 6360,
      "erot": 6361,
      "wt": 6362,
      "hockey": 6363,
      "kent": 6364,
      "s3": 6365,
      "%aa": 6366,
      "gla": 6367,
      "previous": 6368,
      "044": 6369,
      "High": 6370,
      "regional": 6371,
      "guitar": 6372,
      "Calendar": 6373,
      "egy": 6374,
      "yj": 6375,
      "dise": 6376,
      "689": 6377,
      "trust": 6378,
      "council": 6379,
      "een": 6380,
      "B5": 6381,
      "%b9": 6382,
      "ride": 6383,
      "fk": 6384,
      "sher": 6385,
      "eway": 6386,
      "hardware": 6387,
      "hak": 6388,
      "mile": 6389,
      "aten": 6390,
      "misc": 6391,
      "JG": 6392,
      "webp": 6393,
      "lost": 6394,
      "dental": 6395,
      "atie": 6396,
      "stay": 6397,
      "580": 6398,
      "minist": 6399,
      "pham": 6400,
      "685": 6401,
      "jacket": 6402,
      "siya": 6403,
      "cono": 6404,
      "Day": 6405,
      "unge": 6406,
      "ood": 6407,
      "instru": 6408,
      "champion": 6409,
      "alternat": 6410,
      "vanie": 6411,
      "illi": 6412,
      "marri": 6413,
      "xiang": 6414,
      "liste": 6415,
      "IP": 6416,
      "doors": 6417,
      "Fam": 6418,
      "without": 6419,
      "cim": 6420,
      "m4f": 6421,
      "smug": 6422,
      "Hel": 6423,
      "futbol": 6424,
      "method": 6425,
      "sund": 6426,
      "wagen": 6427,
      "prodotto": 6428,
      "clan": 6429,
      "B6": 6430,
      "m4": 6431,
      "princ": 6432,
      "qing": 6433,
      "aby": 6434,
      "loan": 6435,
      "entes": 6436,
      "condition": 6437,
      "aps": 6438,
      "weekend": 6439,
      "zet": 6440,
      "M2": 6441,
      "categorie": 6442,
      "U4": 6443,
      "g5": 6444,
      "SD": 6445,
      "chas": 6446,
      "bec": 6447,
      "393": 6448,
      "being": 6449,
      "knowledge": 6450,
      "County": 6451,
      "adidas": 6452,
      "contest": 6453,
      "415": 6454,
      "guy": 6455,
      "million": 6456,
      "rw": 6457,
      "Bro": 6458,
      "mul": 6459,
      "abs": 6460,
      "gum": 6461,
      "www2": 6462,
      "ravel": 6463,
      "Media": 6464,
      "xa": 6465,
      "lari": 6466,
      "pagina": 6467,
      "ZD": 6468,
      "their": 6469,
      "gis": 6470,
      "sets": 6471,
      "dirty": 6472,
      "PU": 6473,
      "ding": 6474,
      "ott": 6475,
      "tol": 6476,
      "990": 6477,
      "mio": 6478,
      "alan": 6479,
      "1100": 6480,
      "pem": 6481,
      "response": 6482,
      "430": 6483,
      "richten": 6484,
      "pren": 6485,
      "nba": 6486,
      "degre": 6487,
      "aran": 6488,
      "B1": 6489,
      "Rel": 6490,
      "1600": 6491,
      "bright": 6492,
      "MG": 6493,
      "irt": 6494,
      "HV": 6495,
      "newsletter": 6496,
      "desktop": 6497,
      "running": 6498,
      "yp": 6499,
      "HJ": 6500,
      "dspace": 6501,
      "quiz": 6502,
      "E1": 6503,
      "zur": 6504,
      "onet": 6505,
      "resid": 6506,
      "LX": 6507,
      "supplies": 6508,
      "mau": 6509,
      "Document": 6510,
      "332": 6511,
      "celona": 6512,
      "commend": 6513,
      "Vide": 6514,
      "PAG": 6515,
      "august": 6516,
      "male": 6517,
      "tile": 6518,
      "mean": 6519,
      "oka": 6520,
      "ALL": 6521,
      "solution": 6522,
      "czy": 6523,
      "huo": 6524,
      "actualites": 6525,
      "bum": 6526,
      "irs": 6527,
      "bia": 6528,
      "200000": 6529,
      "dum": 6530,
      "eva": 6531,
      "feel": 6532,
      "navy": 6533,
      "381": 6534,
      "counter": 6535,
      "overview": 6536,
      "nice": 6537,
      "rem": 6538,
      "cola": 6539,
      "352": 6540,
      "kx": 6541,
      "period": 6542,
      "Image": 6543,
      "gew": 6544,
      "571": 6545,
      "uston": 6546,
      "height": 6547,
      "342": 6548,
      "centro": 6549,
      "instrument": 6550,
      "visual": 6551,
      "earrings": 6552,
      "rition": 6553,
      "russian": 6554,
      "psi": 6555,
      "ridge": 6556,
      "five": 6557,
      "insider": 6558,
      "planning": 6559,
      "healthcare": 6560,
      "boston": 6561,
      "serial": 6562,
      "rg": 6563,
      "ardo": 6564,
      "italian": 6565,
      "motion": 6566,
      "695": 6567,
      "419": 6568,
      "416": 6569,
      "hik": 6570,
      "Ri": 6571,
      "Sa": 6572,
      "zero": 6573,
      "enix": 6574,
      "thon": 6575,
      "shen": 6576,
      "Ul": 6577,
      "Title": 6578,
      "570": 6579,
      "feedback": 6580,
      "produto": 6581,
      "erk": 6582,
      "nord": 6583,
      "guides": 6584,
      "rang": 6585,
      "v4": 6586,
      "developer": 6587,
      "spie": 6588,
      "dining": 6589,
      "eat": 6590,
      "%D6": 6591,
      "bathroom": 6592,
      "hui": 6593,
      "School": 6594,
      "Cour": 6595,
      "guru": 6596,
      "123456": 6597,
      "Fin": 6598,
      "Commun": 6599,
      "bedroom": 6600,
      "beta": 6601,
      "drug": 6602,
      "inten": 6603,
      "sud": 6604,
      "teams": 6605,
      "graphic": 6606,
      "TY": 6607,
      "laptop": 6608,
      "TE": 6609,
      "Catalog": 6610,
      "institute": 6611,
      "updates": 6612,
      "1j": 6613,
      "382": 6614,
      "DAILY": 6615,
      "battery": 6616,
      "quer": 6617,
      "Events": 6618,
      "moda": 6619,
      "sas": 6620,
      "galleries": 6621,
      "ocean": 6622,
      "SR": 6623,
      "Cent": 6624,
      "ying": 6625,
      "olymp": 6626,
      "pq": 6627,
      "dek": 6628,
      "iku": 6629,
      "iam": 6630,
      "cbd": 6631,
      "atos": 6632,
      "eba": 6633,
      "mlb": 6634,
      "VF": 6635,
      "%3d": 6636,
      "bub": 6637,
      "%a8": 6638,
      "hosting": 6639,
      "vag": 6640,
      "Ym": 6641,
      "Ids": 6642,
      "391": 6643,
      "English": 6644,
      "054": 6645,
      "against": 6646,
      "%a4": 6647,
      "parents": 6648,
      "%5E": 6649,
      "720": 6650,
      "sleep": 6651,
      "064": 6652,
      "lh": 6653,
      "880": 6654,
      "ancer": 6655,
      "sag": 6656,
      "republic": 6657,
      "0001": 6658,
      "hans": 6659,
      "eq": 6660,
      "pump": 6661,
      "SB": 6662,
      "templates": 6663,
      "mf": 6664,
      "placement": 6665,
      "facts": 6666,
      "cmd": 6667,
      "isse": 6668,
      "icio": 6669,
      "uda": 6670,
      "hof": 6671,
      "neo": 6672,
      "config": 6673,
      "zj": 6674,
      "stitut": 6675,
      "illo": 6676,
      "inen": 6677,
      "branch": 6678,
      "before": 6679,
      "strong": 6680,
      "tagged": 6681,
      "regist": 6682,
      "NL": 6683,
      "british": 6684,
      "Ax": 6685,
      "gorod": 6686,
      "marks": 6687,
      "W5": 6688,
      "xmlui": 6689,
      "HU": 6690,
      "pup": 6691,
      "universal": 6692,
      "pageSize": 6693,
      "tact": 6694,
      "beautiful": 6695,
      "submit": 6696,
      "v6": 6697,
      "century": 6698,
      "Publish": 6699,
      "editor": 6700,
      "g4": 6701,
      "getting": 6702,
      "practice": 6703,
      "leader": 6704,
      "torrent": 6705,
      "bli": 6706,
      "born": 6707,
      "smugmug": 6708,
      "prices": 6709,
      "buff": 6710,
      "independ": 6711,
      "utter": 6712,
      "rise": 6713,
      "tribut": 6714,
      "clusive": 6715,
      "hf": 6716,
      "maria": 6717,
      "iii": 6718,
      "wallpaper": 6719,
      "unci": 6720,
      "options": 6721,
      "civil": 6722,
      "B9": 6723,
      "pace": 6724,
      "globe": 6725,
      "F9": 6726,
      "Am": 6727,
      "detal": 6728,
      "tang": 6729,
      "994": 6730,
      "printer": 6731,
      "mint": 6732,
      "markt": 6733,
      "markets": 6734,
      "crystal": 6735,
      "prd": 6736,
      "psycho": 6737,
      "eren": 6738,
      "rie": 6739,
      "zad": 6740,
      "eric": 6741,
      "arden": 6742,
      "volume": 6743,
      "mum": 6744,
      "dak": 6745,
      "aute": 6746,
      "Action": 6747,
      "fold": 6748,
      "lation": 6749,
      "362": 6750,
      "battle": 6751,
      "John": 6752,
      "politica": 6753,
      "faculty": 6754,
      "C8": 6755,
      "Out": 6756,
      "icu": 6757,
      "%b3": 6758,
      "deleted": 6759,
      "BY": 6760,
      "mercedes": 6761,
      "thel": 6762,
      "illust": 6763,
      "xbox": 6764,
      "brain": 6765,
      "B4": 6766,
      "zp": 6767,
      "770": 6768,
      "lei": 6769,
      "igs": 6770,
      "crack": 6771,
      "kins": 6772,
      "rost": 6773,
      "uster": 6774,
      "laser": 6775,
      "disney": 6776,
      "turk": 6777,
      "particip": 6778,
      "eman": 6779,
      "tic": 6780,
      "reless": 6781,
      "trim": 6782,
      "searcht": 6783,
      "MP": 6784,
      "corner": 6785,
      "ansas": 6786,
      "inh": 6787,
      "FOR": 6788,
      "roof": 6789,
      "mebel": 6790,
      "rolet": 6791,
      "left": 6792,
      "referer": 6793,
      "%db": 6794,
      "Oj": 6795,
      "diz": 6796,
      "finish": 6797,
      "trailer": 6798,
      "123456789": 6799,
      "klass": 6800,
      "gian": 6801,
      "ultimate": 6802,
      "Oi": 6803,
      "middle": 6804,
      "egg": 6805,
      "Ny": 6806,
      "pom": 6807,
      "spons": 6808,
      "372": 6809,
      "South": 6810,
      "bitcoin": 6811,
      "accounts": 6812,
      "conse": 6813,
      "074": 6814,
      "shelter": 6815,
      "Z2": 6816,
      "glam": 6817,
      "they": 6818,
      "abel": 6819,
      "vention": 6820,
      "introdu": 6821,
      "therapy": 6822,
      "omet": 6823,
      "june": 6824,
      "pric": 6825,
      "rules": 6826,
      "jard": 6827,
      "marine": 6828,
      "pain": 6829,
      "TIC": 6830,
      "feder": 6831,
      "niy": 6832,
      "roma": 6833,
      "ifier": 6834,
      "VIE": 6835,
      "chinese": 6836,
      "Pat": 6837,
      "knit": 6838,
      "coupon": 6839,
      "AAJ": 6840,
      "proof": 6841,
      "lies": 6842,
      "elen": 6843,
      "011": 6844,
      "UL": 6845,
      "cursos": 6846,
      "goo": 6847,
      "392": 6848,
      "mother": 6849,
      "sample": 6850,
      "dogs": 6851,
      "answered": 6852,
      "heat": 6853,
      "colum": 6854,
      "tik": 6855,
      "emat": 6856,
      "modi": 6857,
      "tsch": 6858,
      "Gall": 6859,
      "resident": 6860,
      "ilar": 6861,
      "bean": 6862,
      "elite": 6863,
      "cj": 6864,
      "Qi": 6865,
      "oj": 6866,
      "eras": 6867,
      "kontakt": 6868,
      "gast": 6869,
      "valent": 6870,
      "Service": 6871,
      "scot": 6872,
      "six": 6873,
      "418": 6874,
      "urnal": 6875,
      "stol": 6876,
      "registration": 6877,
      "BI": 6878,
      "nasa": 6879,
      "slide": 6880,
      "reser": 6881,
      "s1": 6882,
      "ixun": 6883,
      "CP": 6884,
      "pping": 6885,
      "inois": 6886,
      "fiction": 6887,
      "kultur": 6888,
      "empor": 6889,
      "s2": 6890,
      "425": 6891,
      "414": 6892,
      "award": 6893,
      "%a6": 6894,
      "1007": 6895,
      "greg": 6896,
      "olo": 6897,
      "umbia": 6898,
      "else": 6899,
      "colors": 6900,
      "poet": 6901,
      "marketplace": 6902,
      "aught": 6903,
      "itat": 6904,
      "qx": 6905,
      "M0": 6906,
      "ology": 6907,
      "p3": 6908,
      "42949": 6909,
      "java": 6910,
      "boro": 6911,
      "xinwen": 6912,
      "zent": 6913,
      "ncbi": 6914,
      "Value": 6915,
      "Price": 6916,
      "From": 6917,
      "jeans": 6918,
      "453": 6919,
      "rade": 6920,
      "due": 6921,
      "edy": 6922,
      "Ew": 6923,
      "Zj": 6924,
      "smar": 6925,
      "bookmark": 6926,
      "pav": 6927,
      "urb": 6928,
      "reve": 6929,
      "nev": 6930,
      "espe": 6931,
      "aler": 6932,
      "475": 6933,
      "pets": 6934,
      "nx": 6935,
      "pow": 6936,
      "791": 6937,
      "kod": 6938,
      "1010": 6939,
      "eros": 6940,
      "primary": 6941,
      "eus": 6942,
      "cado": 6943,
      "dao": 6944,
      "listResult": 6945,
      "boost": 6946,
      "C1": 6947,
      "diag": 6948,
      "TT": 6949,
      "spr": 6950,
      "indiv": 6951,
      "DU": 6952,
      "chocolate": 6953,
      "hv": 6954,
      "mash": 6955,
      "drink": 6956,
      "canal": 6957,
      "426": 6958,
      "phones": 6959,
      "7E": 6960,
      "yet": 6961,
      "kunst": 6962,
      "ikon": 6963,
      "uran": 6964,
      "unique": 6965,
      "lok": 6966,
      "growth": 6967,
      "031": 6968,
      "imal": 6969,
      "Har": 6970,
      "tell": 6971,
      "reli": 6972,
      "printable": 6973,
      "function": 6974,
      "tou": 6975,
      "programme": 6976,
      "F6": 6977,
      "boom": 6978,
      "590": 6979,
      "elektro": 6980,
      "sortby": 6981,
      "ulu": 6982,
      "413": 6983,
      "enza": 6984,
      "expo": 6985,
      "989": 6986,
      "hart": 6987,
      "piper": 6988,
      "p5": 6989,
      "arc": 6990,
      "adver": 6991,
      "contro": 6992,
      "gamer": 6993,
      "hig": 6994,
      "null": 6995,
      "lod": 6996,
      "subscri": 6997,
      "473": 6998,
      "Air": 6999,
      "bold": 7000,
      "SL": 7001,
      "democr": 7002,
      "Ph": 7003,
      "Person": 7004,
      "Rk": 7005,
      "incre": 7006,
      "redu": 7007,
      "bilder": 7008,
      "cai": 7009,
      "yuan": 7010,
      "garage": 7011,
      "oblast": 7012,
      "986": 7013,
      "660": 7014,
      "spin": 7015,
      "bbc": 7016,
      "435": 7017,
      "cookie": 7018,
      "exhibit": 7019,
      "ReturnUrl": 7020,
      "White": 7021,
      "contr": 7022,
      "sok": 7023,
      "atura": 7024,
      "Business": 7025,
      "quin": 7026,
      "extre": 7027,
      "lista": 7028,
      "purple": 7029,
      "alphabet": 7030,
      "tuc": 7031,
      "instagram": 7032,
      "galeria": 7033,
      "util": 7034,
      "actor": 7035,
      "sweat": 7036,
      "july": 7037,
      "rights": 7038,
      "chip": 7039,
      "424": 7040,
      "heb": 7041,
      "labs": 7042,
      "lw": 7043,
      "based": 7044,
      "Ma": 7045,
      "techn": 7046,
      "cultura": 7047,
      "urun": 7048,
      "ove": 7049,
      "zal": 7050,
      "455": 7051,
      "aling": 7052,
      "zan": 7053,
      "budget": 7054,
      "treatment": 7055,
      "digit": 7056,
      "BJ": 7057,
      "adam": 7058,
      "gj": 7059,
      "forma": 7060,
      "yx": 7061,
      "pros": 7062,
      "cua": 7063,
      "jean": 7064,
      "423": 7065,
      "504": 7066,
      "puzz": 7067,
      "m3": 7068,
      "returnUrl": 7069,
      "investig": 7070,
      "recommend": 7071,
      "zav": 7072,
      "mouth": 7073,
      "tire": 7074,
      "Report": 7075,
      "albums": 7076,
      "GS": 7077,
      "%ef": 7078,
      "obituaries": 7079,
      "move": 7080,
      "agazine": 7081,
      "ands": 7082,
      "ensch": 7083,
      "benefits": 7084,
      "teil": 7085,
      "cott": 7086,
      "gender": 7087,
      "oral": 7088,
      "Yl": 7089,
      "zag": 7090,
      "kd": 7091,
      "onde": 7092,
      "ream": 7093,
      "aso": 7094,
      "987": 7095,
      "bv": 7096,
      "aller": 7097,
      "hobby": 7098,
      "kte": 7099,
      "Program": 7100,
      "wohn": 7101,
      "protect": 7102,
      "deposit": 7103,
      "italy": 7104,
      "apartment": 7105,
      "rib": 7106,
      "camping": 7107,
      "adata": 7108,
      "Stat": 7109,
      "States": 7110,
      "slots": 7111,
      "attle": 7112,
      "pris": 7113,
      "563": 7114,
      "creators": 7115,
      "Mer": 7116,
      "morning": 7117,
      "sugar": 7118,
      "srl": 7119,
      "Qw": 7120,
      "wonder": 7121,
      "bx": 7122,
      "tus": 7123,
      "Yy": 7124,
      "jiang": 7125,
      "mj": 7126,
      "hallo": 7127,
      "tienda": 7128,
      "Sil": 7129,
      "Rele": 7130,
      "463": 7131,
      "471": 7132,
      "iques": 7133,
      "434": 7134,
      "Uz": 7135,
      "soc": 7136,
      "lett": 7137,
      "509": 7138,
      "compar": 7139,
      "uman": 7140,
      "ening": 7141,
      "naj": 7142,
      "hey": 7143,
      "neigh": 7144,
      "IV": 7145,
      "bling": 7146,
      "mujer": 7147,
      "butter": 7148,
      "432": 7149,
      "eler": 7150,
      "Text": 7151,
      "essen": 7152,
      "aires": 7153,
      "Nl": 7154,
      "carbon": 7155,
      "960": 7156,
      "Author": 7157,
      "TION": 7158,
      "izer": 7159,
      "categoryId": 7160,
      "Educ": 7161,
      "bah": 7162,
      "%be": 7163,
      "Gl": 7164,
      "Down": 7165,
      "Met": 7166,
      "jac": 7167,
      "Stre": 7168,
      "wellness": 7169,
      "hx": 7170,
      "corre": 7171,
      "Son": 7172,
      "distribut": 7173,
      "anyone": 7174,
      "plastic": 7175,
      "417": 7176,
      "1024": 7177,
      "reader": 7178,
      "openid": 7179,
      "pher": 7180,
      "chamber": 7181,
      "spip": 7182,
      "moi": 7183,
      "europepmc": 7184,
      "itional": 7185,
      "20130": 7186,
      "alum": 7187,
      "boots": 7188,
      "princi": 7189,
      "ohio": 7190,
      "965": 7191,
      "Center": 7192,
      "VIEW": 7193,
      "oregon": 7194,
      "qr": 7195,
      "Forum": 7196,
      "isha": 7197,
      "alam": 7198,
      "around": 7199,
      "OK": 7200,
      "427": 7201,
      "ems": 7202,
      "shang": 7203,
      "442": 7204,
      "monster": 7205,
      "agents": 7206,
      "hunter": 7207,
      "451": 7208,
      "crew": 7209,
      "asure": 7210,
      "NA": 7211,
      "patents": 7212,
      "loop": 7213,
      "oles": 7214,
      "nk": 7215,
      "rep": 7216,
      "climate": 7217,
      "curso": 7218,
      "prepar": 7219,
      "dresses": 7220,
      "japanese": 7221,
      "461": 7222,
      "C4": 7223,
      "prop": 7224,
      "753": 7225,
      "Zy": 7226,
      "forecast": 7227,
      "scient": 7228,
      "508": 7229,
      "premier": 7230,
      "Ser": 7231,
      "lite": 7232,
      "icial": 7233,
      "476": 7234,
      "could": 7235,
      "qz": 7236,
      "dial": 7237,
      "FI": 7238,
      "barcelona": 7239,
      "skyrock": 7240,
      "Start": 7241,
      "dus": 7242,
      "aser": 7243,
      "annual": 7244,
      "graduate": 7245,
      "wv": 7246,
      "external": 7247,
      "conver": 7248,
      "going": 7249,
      "sess": 7250,
      "553": 7251,
      "vegas": 7252,
      "england": 7253,
      "lette": 7254,
      "cgid": 7255,
      "maj": 7256,
      "contributor": 7257,
      "colorado": 7258,
      "QQ": 7259,
      "concer": 7260,
      "Dep": 7261,
      "1001": 7262,
      "428": 7263,
      "bob": 7264,
      "conditions": 7265,
      "blood": 7266,
      "pj": 7267,
      "431": 7268,
      "aris": 7269,
      "dut": 7270,
      "051": 7271,
      "551": 7272,
      "512": 7273,
      "493": 7274,
      "PDF": 7275,
      "tpage": 7276,
      "033": 7277,
      "wikid": 7278,
      "unanswered": 7279,
      "robot": 7280,
      "clubs": 7281,
      "feld": 7282,
      "magnet": 7283,
      "ellen": 7284,
      "478": 7285,
      "housing": 7286,
      "adow": 7287,
      "depot": 7288,
      "illinois": 7289,
      "spra": 7290,
      "quad": 7291,
      "bier": 7292,
      "atlas": 7293,
      "medio": 7294,
      "parad": 7295,
      "hope": 7296,
      "dale": 7297,
      "nyc": 7298,
      "pz": 7299,
      "ugal": 7300,
      "506": 7301,
      "logies": 7302,
      "anze": 7303,
      "437": 7304,
      "ination": 7305,
      "mek": 7306,
      "materials": 7307,
      "israel": 7308,
      "trac": 7309,
      "kyo": 7310,
      "561": 7311,
      "oss": 7312,
      "Services": 7313,
      "poll": 7314,
      "5x": 7315,
      "uga": 7316,
      "candid": 7317,
      "967": 7318,
      "auctions": 7319,
      "libre": 7320,
      "zoo": 7321,
      "creation": 7322,
      "JS": 7323,
      "ework": 7324,
      "federal": 7325,
      "TA": 7326,
      "showpost": 7327,
      "postcount": 7328,
      "472": 7329,
      "coronavirus": 7330,
      "tf": 7331,
      "urg": 7332,
      "438": 7333,
      "anges": 7334,
      "honey": 7335,
      "skij": 7336,
      "viv": 7337,
      "bote": 7338,
      "chool": 7339,
      "B2": 7340,
      "Lm": 7341,
      "YS": 7342,
      "053": 7343,
      "lobal": 7344,
      "catalogo": 7345,
      "inda": 7346,
      "enterprise": 7347,
      "elt": 7348,
      "%b4": 7349,
      "793": 7350,
      "infos": 7351,
      "kru": 7352,
      "pants": 7353,
      "complete": 7354,
      "Month": 7355,
      "infin": 7356,
      "Er": 7357,
      "chy": 7358,
      "rela": 7359,
      "452": 7360,
      "shorts": 7361,
      "jazz": 7362,
      "680": 7363,
      "gf": 7364,
      "casual": 7365,
      "mah": 7366,
      "beh": 7367,
      "apache": 7368,
      "Style": 7369,
      "3x": 7370,
      "510": 7371,
      "CR": 7372,
      "hoa": 7373,
      "september": 7374,
      "1o": 7375,
      "Mob": 7376,
      "objects": 7377,
      "langu": 7378,
      "structure": 7379,
      "bulletin": 7380,
      "lx": 7381,
      "York": 7382,
      "kont": 7383,
      "KEN": 7384,
      "military": 7385,
      "DPLA": 7386,
      "qf": 7387,
      "Comp": 7388,
      "867": 7389,
      "nissan": 7390,
      "vog": 7391,
      "memory": 7392,
      "belle": 7393,
      "autos": 7394,
      "seat": 7395,
      "tast": 7396,
      "aste": 7397,
      "vida": 7398,
      "A3": 7399,
      "reset": 7400,
      "483": 7401,
      "shopdetail": 7402,
      "West": 7403,
      "Language": 7404,
      "rj": 7405,
      "8x": 7406,
      "hung": 7407,
      "scan": 7408,
      "Ber": 7409,
      "uco": 7410,
      "B7": 7411,
      "C6": 7412,
      "Em": 7413,
      "device": 7414,
      "shoot": 7415,
      "895": 7416,
      "evel": 7417,
      "985": 7418,
      "nf": 7419,
      "dau": 7420,
      "fee": 7421,
      "debian": 7422,
      "productos": 7423,
      "4k": 7424,
      "uru": 7425,
      "promotion": 7426,
      "481": 7427,
      "deng": 7428,
      "uns": 7429,
      "cles": 7430,
      "electronics": 7431,
      "employ": 7432,
      "Mode": 7433,
      "rush": 7434,
      "random": 7435,
      "would": 7436,
      "ised": 7437,
      "kee": 7438,
      "femme": 7439,
      "atar": 7440,
      "9u": 7441,
      "todo": 7442,
      "plants": 7443,
      "caf": 7444,
      "412": 7445,
      "phan": 7446,
      "consulting": 7447,
      "onia": 7448,
      "canon": 7449,
      "jag": 7450,
      "Lu": 7451,
      "economy": 7452,
      "scott": 7453,
      "justice": 7454,
      "umes": 7455,
      "necklace": 7456,
      "avenue": 7457,
      "3000": 7458,
      "relig": 7459,
      "kik": 7460,
      "chef": 7461,
      "Je": 7462,
      "heit": 7463,
      "gency": 7464,
      "anten": 7465,
      "liver": 7466,
      "early": 7467,
      "heritage": 7468,
      "phpBB3": 7469,
      "certific": 7470,
      "raf": 7471,
      "cision": 7472,
      "won": 7473,
      "atures": 7474,
      "kereso": 7475,
      "produkte": 7476,
      "032": 7477,
      "lemon": 7478,
      "zhan": 7479,
      "Q0": 7480,
      "espn": 7481,
      "Tag": 7482,
      "Main": 7483,
      "zk": 7484,
      "tecno": 7485,
      "points": 7486,
      "guard": 7487,
      "GO": 7488,
      "tow": 7489,
      "debut": 7490,
      "763": 7491,
      "HD": 7492,
      "izz": 7493,
      "comer": 7494,
      "Num": 7495,
      "chik": 7496,
      "servlet": 7497,
      "vinyl": 7498,
      "rows": 7499,
      "ules": 7500,
      "jung": 7501,
      "HP": 7502,
      "miami": 7503,
      "which": 7504,
      "cem": 7505,
      "3M": 7506,
      "bim": 7507,
      "tong": 7508,
      "thomas": 7509,
      "482": 7510,
      "reland": 7511,
      "anza": 7512,
      "sible": 7513,
      "chris": 7514,
      "761": 7515,
      "%b2": 7516,
      "uen": 7517,
      "edin": 7518,
      "female": 7519,
      "apparel": 7520,
      "suk": 7521,
      "songs": 7522,
      "suz": 7523,
      "push": 7524,
      "ruary": 7525,
      "highlight": 7526,
      "covery": 7527,
      "Tex": 7528,
      "entity": 7529,
      "cies": 7530,
      "991": 7531,
      "rar": 7532,
      "toon": 7533,
      "brush": 7534,
      "043": 7535,
      "pattern": 7536,
      "cbs": 7537,
      "idays": 7538,
      "close": 7539,
      "svo": 7540,
      "1080": 7541,
      "AI": 7542,
      "Library": 7543,
      "ako": 7544,
      "nutrition": 7545,
      "897": 7546,
      "zm": 7547,
      "adventure": 7548,
      "funny": 7549,
      "progress": 7550,
      "borg": 7551,
      "1920": 7552,
      "freelancer": 7553,
      "IMG": 7554,
      "ius": 7555,
      "sic": 7556,
      "Jan": 7557,
      "itemid": 7558,
      "meteo": 7559,
      "OU": 7560,
      "adap": 7561,
      "summary": 7562,
      "connection": 7563,
      "507": 7564,
      "cold": 7565,
      "XR": 7566,
      "jump": 7567,
      "celebrity": 7568,
      "spread": 7569,
      "attack": 7570,
      "atz": 7571,
      "testim": 7572,
      "gray": 7573,
      "Del": 7574,
      "letters": 7575,
      "conce": 7576,
      "leaf": 7577,
      "obor": 7578,
      "KE": 7579,
      "jat": 7580,
      "491": 7581,
      "lement": 7582,
      "zona": 7583,
      "vector": 7584,
      "gence": 7585,
      "Links": 7586,
      "p6": 7587,
      "aul": 7588,
      "ceram": 7589,
      "rop": 7590,
      "lift": 7591,
      "Net": 7592,
      "lover": 7593,
      "1200": 7594,
      "glas": 7595,
      "izon": 7596,
      "much": 7597,
      "9999": 7598,
      "porte": 7599,
      "ucht": 7600,
      "wim": 7601,
      "servi": 7602,
      "Direct": 7603,
      "teacher": 7604,
      "Fran": 7605,
      "751": 7606,
      "minute": 7607,
      "fandom": 7608,
      "ubb": 7609,
      "urope": 7610,
      "qua": 7611,
      "v5": 7612,
      "lanta": 7613,
      "Sale": 7614,
      "Bio": 7615,
      "Hol": 7616,
      "guan": 7617,
      "865": 7618,
      "sustain": 7619,
      "restaurants": 7620,
      "792": 7621,
      "jie": 7622,
      "nha": 7623,
      "kni": 7624,
      "4g": 7625,
      "sop": 7626,
      "missions": 7627,
      "coral": 7628,
      "alumin": 7629,
      "rij": 7630,
      "acia": 7631,
      "execut": 7632,
      "arg": 7633,
      "adian": 7634,
      "253F": 7635,
      "Game": 7636,
      "lane": 7637,
      "luk": 7638,
      "idea": 7639,
      "Stud": 7640,
      "panor": 7641,
      "proto": 7642,
      "thought": 7643,
      "websites": 7644,
      "diplo": 7645,
      "xc": 7646,
      "atlant": 7647,
      "guys": 7648,
      "CM": 7649,
      "%b5": 7650,
      "Her": 7651,
      "gui": 7652,
      "606": 7653,
      "sheng": 7654,
      "wk": 7655,
      "1011": 7656,
      "painting": 7657,
      "hare": 7658,
      "foods": 7659,
      "Work": 7660,
      "ensive": 7661,
      "dei": 7662,
      "faith": 7663,
      "rakuten": 7664,
      "Jl": 7665,
      "neb": 7666,
      "actu": 7667,
      "462": 7668,
      "wireless": 7669,
      "classifieds": 7670,
      "zor": 7671,
      "embre": 7672,
      "iven": 7673,
      "Facet": 7674,
      "Time": 7675,
      "Cl": 7676,
      "Restaurant": 7677,
      "kiss": 7678,
      "character": 7679,
      "acja": 7680,
      "asons": 7681,
      "D6": 7682,
      "mein": 7683,
      "g3": 7684,
      "submission": 7685,
      "mesh": 7686,
      "sper": 7687,
      "cic": 7688,
      "twe": 7689,
      "ueber": 7690,
      "vince": 7691,
      "May": 7692,
      "choice": 7693,
      "rift": 7694,
      "Sim": 7695,
      "optimaliz": 7696,
      "vul": 7697,
      "dokument": 7698,
      "pru": 7699,
      "andal": 7700,
      "Set": 7701,
      "flights": 7702,
      "752": 7703,
      "D7": 7704,
      "F7": 7705,
      "bibli": 7706,
      "cycling": 7707,
      "nachrichten": 7708,
      "icios": 7709,
      "NI": 7710,
      "politik": 7711,
      "dash": 7712,
      "orf": 7713,
      "562": 7714,
      "Hy": 7715,
      "shipping": 7716,
      "lec": 7717,
      "bek": 7718,
      "isbn": 7719,
      "november": 7720,
      "emen": 7721,
      "alta": 7722,
      "americ": 7723,
      "071": 7724,
      "carpet": 7725,
      "cope": 7726,
      "comunic": 7727,
      "wikia": 7728,
      "prostitut": 7729,
      "kut": 7730,
      "llc": 7731,
      "arti": 7732,
      "ithub": 7733,
      "shan": 7734,
      "faces": 7735,
      "ooth": 7736,
      "scho": 7737,
      "itt": 7738,
      "nude": 7739,
      "slideshow": 7740,
      "army": 7741,
      "never": 7742,
      "evo": 7743,
      "rah": 7744,
      "arket": 7745,
      "Ab": 7746,
      "hell": 7747,
      "pipermail": 7748,
      "locat": 7749,
      "ipo": 7750,
      "xhtml": 7751,
      "major": 7752,
      "993": 7753,
      "552": 7754,
      "keresooptimaliz": 7755,
      "sang": 7756,
      "%d7": 7757,
      "contre": 7758,
      "439": 7759,
      "Record": 7760,
      "ede": 7761,
      "bic": 7762,
      "creek": 7763,
      "VB": 7764,
      "TER": 7765,
      "experts": 7766,
      "System": 7767,
      "attra": 7768,
      "Z1z": 7769,
      "wiz": 7770,
      "phia": 7771,
      "HM6": 7772,
      "provider": 7773,
      "k5": 7774,
      "tempor": 7775,
      "2525252F": 7776,
      "wife": 7777,
      "autop": 7778,
      "discovery": 7779,
      "rule": 7780,
      "candy": 7781,
      "690": 7782,
      "nay": 7783,
      "jel": 7784,
      "floral": 7785,
      "onews": 7786,
      "scene": 7787,
      "U1": 7788,
      "goda": 7789,
      "jed": 7790,
      "sai": 7791,
      "jog": 7792,
      "surf": 7793,
      "benz": 7794,
      "elo": 7795,
      "Mult": 7796,
      "styles": 7797,
      "L3": 7798,
      "How": 7799,
      "schwar": 7800,
      "052": 7801,
      "sina": 7802,
      "574": 7803,
      "ktor": 7804,
      "TM": 7805,
      "pubmed": 7806,
      "half": 7807,
      "fulltext": 7808,
      "Aw": 7809,
      "zb": 7810,
      "783": 7811,
      "Sal": 7812,
      "1800": 7813,
      "eag": 7814,
      "andy": 7815,
      "Family": 7816,
      "nej": 7817,
      "association": 7818,
      "Cap": 7819,
      "survey": 7820,
      "C7": 7821,
      "cuc": 7822,
      "virginia": 7823,
      "electro": 7824,
      "azh": 7825,
      "amiento": 7826,
      "aking": 7827,
      "vez": 7828,
      "terra": 7829,
      "spec": 7830,
      "wj": 7831,
      "grande": 7832,
      "avis": 7833,
      "503": 7834,
      "uge": 7835,
      "HM6Ly": 7836,
      "Ger": 7837,
      "grupo": 7838,
      "Ql": 7839,
      "tof": 7840,
      "advertis": 7841,
      "keresooptimalizalas": 7842,
      "tourn": 7843,
      "gut": 7844,
      "estar": 7845,
      "zr": 7846,
      "762": 7847,
      "sert": 7848,
      "tao": 7849,
      "041": 7850,
      "olog": 7851,
      "1st": 7852,
      "774": 7853,
      "Design": 7854,
      "yor": 7855,
      "photoshelter": 7856,
      "dung": 7857,
      "jok": 7858,
      "aktuelles": 7859,
      "dwvar": 7860,
      "layer": 7861,
      "cse": 7862,
      "ukraine": 7863,
      "t2": 7864,
      "problem": 7865,
      "chto": 7866,
      "riere": 7867,
      "peng": 7868,
      "github": 7869,
      "rentals": 7870,
      "ulary": 7871,
      "JJ": 7872,
      "ekonom": 7873,
      "between": 7874,
      "circle": 7875,
      "Yx": 7876,
      "492": 7877,
      "anet": 7878,
      "vap": 7879,
      "w3": 7880,
      "781": 7881,
      "urt": 7882,
      "984": 7883,
      "skogo": 7884,
      "korea": 7885,
      "cooper": 7886,
      "Blue": 7887,
      "Video": 7888,
      "mental": 7889,
      "akh": 7890,
      "houston": 7891,
      "nash": 7892,
      "VER": 7893,
      "oth": 7894,
      "AZ": 7895,
      "grup": 7896,
      "sklep": 7897,
      "pine": 7898,
      "bots": 7899,
      "watches": 7900,
      "agric": 7901,
      "flip": 7902,
      "economic": 7903,
      "Fl": 7904,
      "bios": 7905,
      "rian": 7906,
      "hoer": 7907,
      "Park": 7908,
      "Shop": 7909,
      "tables": 7910,
      "kategorie": 7911,
      "advis": 7912,
      "investment": 7913,
      "Object": 7914,
      "iyu": 7915,
      "DS": 7916,
      "OE": 7917,
      "1g": 7918,
      "estore": 7919,
      "germany": 7920,
      "iset": 7921,
      "daniel": 7922,
      "Recent": 7923,
      "roc": 7924,
      "degree": 7925,
      "junior": 7926,
      "sources": 7927,
      "reme": 7928,
      "sql": 7929,
      "Project": 7930,
      "hyper": 7931,
      "etik": 7932,
      "2k": 7933,
      "Da": 7934,
      "yap": 7935,
      "t3": 7936,
      "angeles": 7937,
      "chase": 7938,
      "masters": 7939,
      "511": 7940,
      "530": 7941,
      "Us": 7942,
      "CRE": 7943,
      "spain": 7944,
      "sham": 7945,
      "init": 7946,
      "Ij": 7947,
      "another": 7948,
      "odo": 7949,
      "loans": 7950,
      "obo": 7951,
      "mons": 7952,
      "hybrid": 7953,
      "irl": 7954,
      "castle": 7955,
      "aHR0cHM6Ly": 7956,
      "erc": 7957,
      "Pres": 7958,
      "584": 7959,
      "%8a": 7960,
      "brun": 7961,
      "crime": 7962,
      "dealer": 7963,
      "journey": 7964,
      "cabinet": 7965,
      "messages": 7966,
      "teachers": 7967,
      "amor": 7968,
      "pais": 7969,
      "%C6": 7970,
      "alie": 7971,
      "042": 7972,
      "%e6": 7973,
      "CS": 7974,
      "eid": 7975,
      "College": 7976,
      "peace": 7977,
      "pped": 7978,
      "tung": 7979,
      "thed": 7980,
      "eniya": 7981,
      "084": 7982,
      "hoc": 7983,
      "kill": 7984,
      "proiz": 7985,
      "Query": 7986,
      "bea": 7987,
      "inews": 7988,
      "analy": 7989,
      "oshi": 7990,
      "phen": 7991,
      "hydro": 7992,
      "925": 7993,
      "deutschland": 7994,
      "uti": 7995,
      "zig": 7996,
      "atro": 7997,
      "classes": 7998,
      "director": 7999,
      "bew": 8000,
      "nest": 8001,
      "Christ": 8002,
      "Support": 8003,
      "tren": 8004,
      "WN": 8005,
      "525": 8006,
      "chess": 8007,
      "ilia": 8008,
      "regions": 8009,
      "avan": 8010,
      "quant": 8011,
      "C2": 8012,
      "1s": 8013,
      "acu": 8014,
      "breaking": 8015,
      "clc": 8016,
      "Yj": 8017,
      "browser": 8018,
      "minor": 8019,
      "jordan": 8020,
      "Vy": 8021,
      "C0": 8022,
      "h2": 8023,
      "gbs": 8024,
      "abad": 8025,
      "izie": 8026,
      "518": 8027,
      "BK": 8028,
      "Rj": 8029,
      "calcul": 8030,
      "storm": 8031,
      "compr": 8032,
      "numbers": 8033,
      "contract": 8034,
      "mama": 8035,
      "nsw": 8036,
      "tayl": 8037,
      "B3": 8038,
      "risk": 8039,
      "lau": 8040,
      "etta": 8041,
      "iled": 8042,
      "juli": 8043,
      "yal": 8044,
      "enos": 8045,
      "Sum": 8046,
      "ruz": 8047,
      "halloween": 8048,
      "strategy": 8049,
      "HO": 8050,
      "mous": 8051,
      "oa": 8052,
      "1ec": 8053,
      "iris": 8054,
      "jeff": 8055,
      "conserv": 8056,
      "abar": 8057,
      "consumer": 8058,
      "musik": 8059,
      "BU": 8060,
      "stainless": 8061,
      "esse": 8062,
      "tages": 8063,
      "minister": 8064,
      "aii": 8065,
      "aza": 8066,
      "tend": 8067,
      "%bc": 8068,
      "flix": 8069,
      "facil": 8070,
      "Model": 8071,
      "Ez": 8072,
      "coop": 8073,
      "signup": 8074,
      "BS": 8075,
      "chicken": 8076,
      "wand": 8077,
      "spi": 8078,
      "entic": 8079,
      "062": 8080,
      "typ": 8081,
      "stocks": 8082,
      "771": 8083,
      "atics": 8084,
      "regul": 8085,
      "1016": 8086,
      "muz": 8087,
      "guid": 8088,
      "sponsor": 8089,
      "harvard": 8090,
      "nifty": 8091,
      "obraz": 8092,
      "3m": 8093,
      "cooking": 8094,
      "canvas": 8095,
      "refine": 8096,
      "tres": 8097,
      "apply": 8098,
      "theater": 8099,
      "hyun": 8100,
      "1900": 8101,
      "shower": 8102,
      "Green": 8103,
      "seite": 8104,
      "Nov": 8105,
      "594": 8106,
      "Na": 8107,
      "hear": 8108,
      "kaf": 8109,
      "073": 8110,
      "stackexchange": 8111,
      "Fri": 8112,
      "beyond": 8113,
      "517": 8114,
      "pussy": 8115,
      "attr": 8116,
      "573": 8117,
      "zia": 8118,
      "hoy": 8119,
      "PI": 8120,
      "standing": 8121,
      "isto": 8122,
      "5g": 8123,
      "these": 8124,
      "kiev": 8125,
      "atu": 8126,
      "advisor": 8127,
      "nsf": 8128,
      "q2": 8129,
      "Series": 8130,
      "mechan": 8131,
      "1400": 8132,
      "cuis": 8133,
      "raj": 8134,
      "species": 8135,
      "pension": 8136,
      "redi": 8137,
      "lom": 8138,
      "lf": 8139,
      "parks": 8140,
      "kola": 8141,
      "wf": 8142,
      "plugin": 8143,
      "imper": 8144,
      "DR": 8145,
      "oby": 8146,
      "achat": 8147,
      "usu": 8148,
      "vx": 8149,
      "jackson": 8150,
      "Cook": 8151,
      "Market": 8152,
      "PM": 8153,
      "cach": 8154,
      "Mot": 8155,
      "aden": 8156,
      "083": 8157,
      "ipad": 8158,
      "5k": 8159,
      "istic": 8160,
      "meng": 8161,
      "reach": 8162,
      "icz": 8163,
      "sach": 8164,
      "I6": 8165,
      "economia": 8166,
      "doing": 8167,
      "Pl": 8168,
      "sees": 8169,
      "listevents": 8170,
      "aland": 8171,
      "063": 8172,
      "eken": 8173,
      "773": 8174,
      "qiu": 8175,
      "pok": 8176,
      "industries": 8177,
      "1997": 8178,
      "061": 8179,
      "bast": 8180,
      "moment": 8181,
      "PO": 8182,
      "distance": 8183,
      "command": 8184,
      "Photos": 8185,
      "081": 8186,
      "782": 8187,
      "Information": 8188,
      "ladies": 8189,
      "olf": 8190,
      "changes": 8191
    },
    "merges": [
      [
        "h",
        "t"
      ],
      [
        "t",
        "p"
      ],
      [
        "ht",
        "tp"
      ],
      [
        "/",
        "/"
      ],
      [
        ":",
        "//"
      ],
      [
        "w",
        "w"
      ],
      [
        "c",
        "o"
      ],
      [
        "e",
        "r"
      ],
      [
        "http",
        "s"
      ],
      [
        "https",
        "://"
      ],
      [
        "i",
        "n"
      ],
      [
        "co",
        "m"
      ],
      [
        "o",
        "r"
      ],
      [
        "e",
        "n"
      ],
      [
        "e",
        "s"
      ],
      [
        "a",
        "r"
      ],
      [
        "a",
        "n"
      ],
      [
        "ww",
        "w"
      ],
      [
        "o",
        "n"
      ],
      [
        "a",
        "t"
      ],
      [
        "a",
        "l"
      ],
      [
        "http",
        "://"
      ],
      [
        "%",
        "B"
      ],
      [
        "r",
        "e"
      ],
      [
        "s",
        "t"
      ],
      [
        "2",
        "0"
      ],
      [
        "%",
        "D"
      ],
      [
        "i",
        "t"
      ],
      [
        "d",
        "e"
      ],
      [
        "r",
        "o"
      ],
      [
        "c",
        "h"
      ],
      [
        "l",
        "e"
      ],
      [
        "%",
        "8"
      ],
      [
        "i",
        "c"
      ],
      [
        "%",
        "E"
      ],
      [
        "i",
        "l"
      ],
      [
        "a",
        "s"
      ],
      [
        "e",
        "t"
      ],
      [
        "ht",
        "m"
      ],
      [
        "a",
        "g"
      ],
      [
        "c",
        "t"
      ],
      [
        "htm",
        "l"
      ],
      [
        "l",
        "o"
      ],
      [
        "a",
        "m"
      ],
      [
        "e",
        "l"
      ],
      [
        "i",
        "on"
      ],
      [
        "%",
        "A"
      ],
      [
        "i",
        "d"
      ],
      [
        "en",
        "t"
      ],
      [
        "%",
        "2"
      ],
      [
        "i",
        "s"
      ],
      [
        "e",
        "d"
      ],
      [
        "t",
        "o"
      ],
      [
        "u",
        "r"
      ],
      [
        "h",
        "o"
      ],
      [
        "in",
        "g"
      ],
      [
        "a",
        "d"
      ],
      [
        "t",
        "h"
      ],
      [
        "u",
        "n"
      ],
      [
        "0",
        "0"
      ],
      [
        "%",
        "5"
      ],
      [
        "a",
        "c"
      ],
      [
        "s",
        "e"
      ],
      [
        "p",
        "ro"
      ],
      [
        "e",
        "w"
      ],
      [
        "l",
        "i"
      ],
      [
        "t",
        "er"
      ],
      [
        "p",
        "h"
      ],
      [
        "p",
        "o"
      ],
      [
        "u",
        "s"
      ],
      [
        "u",
        "m"
      ],
      [
        "20",
        "1"
      ],
      [
        "e",
        "m"
      ],
      [
        "d",
        "u"
      ],
      [
        "v",
        "i"
      ],
      [
        "f",
        "or"
      ],
      [
        "%",
        "3"
      ],
      [
        "i",
        "m"
      ],
      [
        "r",
        "a"
      ],
      [
        "an",
        "d"
      ],
      [
        "1",
        "0"
      ],
      [
        "%D",
        "8"
      ],
      [
        "l",
        "a"
      ],
      [
        "ph",
        "p"
      ],
      [
        "%",
        "9"
      ],
      [
        "%D",
        "0"
      ],
      [
        "r",
        "u"
      ],
      [
        "b",
        "o"
      ],
      [
        "p",
        "e"
      ],
      [
        "u",
        "t"
      ],
      [
        "2",
        "5"
      ],
      [
        "m",
        "o"
      ],
      [
        "1",
        "1"
      ],
      [
        "ar",
        "t"
      ],
      [
        "i",
        "a"
      ],
      [
        "f",
        "il"
      ],
      [
        "t",
        "a"
      ],
      [
        "d",
        "o"
      ],
      [
        "i",
        "g"
      ],
      [
        "a",
        "p"
      ],
      [
        "n",
        "o"
      ],
      [
        "lo",
        "g"
      ],
      [
        "or",
        "g"
      ],
      [
        "ag",
        "e"
      ],
      [
        "%",
        "20"
      ],
      [
        "q",
        "u"
      ],
      [
        "at",
        "e"
      ],
      [
        "i",
        "r"
      ],
      [
        "i",
        "v"
      ],
      [
        "a",
        "u"
      ],
      [
        "t",
        "e"
      ],
      [
        "o",
        "l"
      ],
      [
        "u",
        "b"
      ],
      [
        "pro",
        "du"
      ],
      [
        "n",
        "ew"
      ],
      [
        "at",
        "ion"
      ],
      [
        "%5",
        "B"
      ],
      [
        "%5",
        "D"
      ],
      [
        "or",
        "t"
      ],
      [
        "%",
        "C"
      ],
      [
        "1",
        "2"
      ],
      [
        "fil",
        "ter"
      ],
      [
        "%D",
        "9"
      ],
      [
        "er",
        "s"
      ],
      [
        "produ",
        "ct"
      ],
      [
        "r",
        "es"
      ],
      [
        "p",
        "l"
      ],
      [
        "u",
        "l"
      ],
      [
        "c",
        "e"
      ],
      [
        "co",
        "n"
      ],
      [
        "%B",
        "D"
      ],
      [
        "ar",
        "ch"
      ],
      [
        "a",
        "b"
      ],
      [
        "i",
        "k"
      ],
      [
        "a",
        "y"
      ],
      [
        "1",
        "3"
      ],
      [
        "t",
        "y"
      ],
      [
        "r",
        "i"
      ],
      [
        "g",
        "o"
      ],
      [
        "d",
        "i"
      ],
      [
        "%B",
        "F"
      ],
      [
        "o",
        "m"
      ],
      [
        "1",
        "5"
      ],
      [
        "1",
        "9"
      ],
      [
        "f",
        "i"
      ],
      [
        "es",
        "t"
      ],
      [
        "1",
        "4"
      ],
      [
        "%E",
        "0"
      ],
      [
        "t",
        "ag"
      ],
      [
        "1",
        "6"
      ],
      [
        "n",
        "et"
      ],
      [
        "2",
        "4"
      ],
      [
        "o",
        "f"
      ],
      [
        "b",
        "log"
      ],
      [
        "new",
        "s"
      ],
      [
        "%3",
        "A"
      ],
      [
        "a",
        "k"
      ],
      [
        "o",
        "s"
      ],
      [
        "u",
        "p"
      ],
      [
        "1",
        "8"
      ],
      [
        "%E",
        "F"
      ],
      [
        "o",
        "p"
      ],
      [
        "s",
        "p"
      ],
      [
        "2",
        "3"
      ],
      [
        "m",
        "ent"
      ],
      [
        "1",
        "7"
      ],
      [
        "e",
        "b"
      ],
      [
        "an",
        "g"
      ],
      [
        "s",
        "ho"
      ],
      [
        "al",
        "l"
      ],
      [
        "s",
        "h"
      ],
      [
        "i",
        "e"
      ],
      [
        "%2",
        "F"
      ],
      [
        "%2",
        "5"
      ],
      [
        "b",
        "r"
      ],
      [
        "re",
        "d"
      ],
      [
        "in",
        "e"
      ],
      [
        "f",
        "o"
      ],
      [
        "%B",
        "8"
      ],
      [
        "de",
        "x"
      ],
      [
        "o",
        "k"
      ],
      [
        "f",
        "r"
      ],
      [
        "m",
        "a"
      ],
      [
        "th",
        "e"
      ],
      [
        "b",
        "e"
      ],
      [
        "2",
        "2"
      ],
      [
        "p",
        "age"
      ],
      [
        "vi",
        "ew"
      ],
      [
        "m",
        "e"
      ],
      [
        "in",
        "dex"
      ],
      [
        "3",
        "0"
      ],
      [
        "c",
        "a"
      ],
      [
        "i",
        "st"
      ],
      [
        "s",
        "o"
      ],
      [
        "v",
        "er"
      ],
      [
        "2",
        "6"
      ],
      [
        "n",
        "e"
      ],
      [
        "v",
        "e"
      ],
      [
        "c",
        "i"
      ],
      [
        "or",
        "y"
      ],
      [
        "j",
        "e"
      ],
      [
        "es",
        "s"
      ],
      [
        "%E",
        "3"
      ],
      [
        "u",
        "k"
      ],
      [
        "t",
        "r"
      ],
      [
        "for",
        "um"
      ],
      [
        "0",
        "9"
      ],
      [
        "w",
        "or"
      ],
      [
        "2",
        "9"
      ],
      [
        "ty",
        "pe"
      ],
      [
        "s",
        "k"
      ],
      [
        "0",
        "8"
      ],
      [
        "d",
        "a"
      ],
      [
        "2",
        "8"
      ],
      [
        "%D",
        "1"
      ],
      [
        "f",
        "e"
      ],
      [
        "ct",
        "ion"
      ],
      [
        "0",
        "5"
      ],
      [
        "2",
        "7"
      ],
      [
        "i",
        "z"
      ],
      [
        "0",
        "4"
      ],
      [
        "p",
        "r"
      ],
      [
        "%A",
        "7"
      ],
      [
        "e",
        "x"
      ],
      [
        "0",
        "6"
      ],
      [
        "0",
        "7"
      ],
      [
        "j",
        "p"
      ],
      [
        "0",
        "3"
      ],
      [
        "c",
        "k"
      ],
      [
        "se",
        "arch"
      ],
      [
        "d",
        "er"
      ],
      [
        "t",
        "s"
      ],
      [
        "i",
        "o"
      ],
      [
        "h",
        "e"
      ],
      [
        "3",
        "6"
      ],
      [
        "red",
        "d"
      ],
      [
        "am",
        "p"
      ],
      [
        "it",
        "y"
      ],
      [
        "o",
        "g"
      ],
      [
        "o",
        "b"
      ],
      [
        "co",
        "l"
      ],
      [
        "c",
        "l"
      ],
      [
        "ar",
        "d"
      ],
      [
        "n",
        "a"
      ],
      [
        "i",
        "p"
      ],
      [
        "ar",
        "e"
      ],
      [
        "o",
        "d"
      ],
      [
        "al",
        "s"
      ],
      [
        "3",
        "4"
      ],
      [
        "ac",
        "k"
      ],
      [
        "%8",
        "3"
      ],
      [
        "ate",
        "g"
      ],
      [
        "3",
        "5"
      ],
      [
        "g",
        "e"
      ],
      [
        "p",
        "er"
      ],
      [
        "k",
        "e"
      ],
      [
        "i",
        "es"
      ],
      [
        "to",
        "p"
      ],
      [
        "el",
        "d"
      ],
      [
        "g",
        "r"
      ],
      [
        "u",
        "e"
      ],
      [
        "%8",
        "2"
      ],
      [
        "3",
        "7"
      ],
      [
        "an",
        "t"
      ],
      [
        "b",
        "er"
      ],
      [
        "3",
        "8"
      ],
      [
        "%8",
        "1"
      ],
      [
        "%2",
        "C"
      ],
      [
        "9",
        "9"
      ],
      [
        "product",
        "s"
      ],
      [
        "s",
        "er"
      ],
      [
        "m",
        "ar"
      ],
      [
        "a",
        "z"
      ],
      [
        "c",
        "at"
      ],
      [
        "0",
        "1"
      ],
      [
        "%2",
        "2"
      ],
      [
        "4",
        "4"
      ],
      [
        "2",
        "1"
      ],
      [
        "p",
        "ort"
      ],
      [
        "o",
        "t"
      ],
      [
        "m",
        "an"
      ],
      [
        "je",
        "ct"
      ],
      [
        "5",
        "6"
      ],
      [
        "en",
        "d"
      ],
      [
        "l",
        "y"
      ],
      [
        "a",
        "v"
      ],
      [
        "3",
        "9"
      ],
      [
        "e",
        "v"
      ],
      [
        "as",
        "s"
      ],
      [
        "fi",
        "eld"
      ],
      [
        "com",
        "ment"
      ],
      [
        "c",
        "ateg"
      ],
      [
        "iv",
        "e"
      ],
      [
        "it",
        "e"
      ],
      [
        "7",
        "8"
      ],
      [
        "4",
        "6"
      ],
      [
        "y",
        "o"
      ],
      [
        "f",
        "a"
      ],
      [
        "%E",
        "5"
      ],
      [
        "as",
        "p"
      ],
      [
        "%C",
        "3"
      ],
      [
        "c",
        "n"
      ],
      [
        "w",
        "e"
      ],
      [
        "s",
        "ub"
      ],
      [
        "con",
        "t"
      ],
      [
        "po",
        "t"
      ],
      [
        "%B",
        "1"
      ],
      [
        "ed",
        "u"
      ],
      [
        "ic",
        "e"
      ],
      [
        "4",
        "8"
      ],
      [
        "li",
        "st"
      ],
      [
        "5",
        "5"
      ],
      [
        "l",
        "es"
      ],
      [
        "d",
        "es"
      ],
      [
        "%",
        "7"
      ],
      [
        "sho",
        "p"
      ],
      [
        "blog",
        "s"
      ],
      [
        "s",
        "u"
      ],
      [
        "m",
        "ed"
      ],
      [
        "p",
        "ar"
      ],
      [
        "m",
        "on"
      ],
      [
        "7",
        "6"
      ],
      [
        "art",
        "ic"
      ],
      [
        "b",
        "y"
      ],
      [
        "a",
        "f"
      ],
      [
        "4",
        "9"
      ],
      [
        "%8",
        "0"
      ],
      [
        "m",
        "y"
      ],
      [
        "4",
        "5"
      ],
      [
        "%8",
        "4"
      ],
      [
        "0",
        "2"
      ],
      [
        "am",
        "e"
      ],
      [
        "8",
        "8"
      ],
      [
        "s",
        "ch"
      ],
      [
        "25",
        "25"
      ],
      [
        "b",
        "l"
      ],
      [
        "p",
        "res"
      ],
      [
        "h",
        "a"
      ],
      [
        "%C",
        "E"
      ],
      [
        "b",
        "a"
      ],
      [
        "po",
        "st"
      ],
      [
        "in",
        "t"
      ],
      [
        "b",
        "i"
      ],
      [
        "r",
        "y"
      ],
      [
        "or",
        "e"
      ],
      [
        "e",
        "qu"
      ],
      [
        "v",
        "o"
      ],
      [
        "i",
        "f"
      ],
      [
        "m",
        "at"
      ],
      [
        "redd",
        "it"
      ],
      [
        "7",
        "5"
      ],
      [
        "w",
        "eb"
      ],
      [
        "u",
        "re"
      ],
      [
        "categ",
        "ory"
      ],
      [
        "bo",
        "ok"
      ],
      [
        "d",
        "f"
      ],
      [
        "%3",
        "D"
      ],
      [
        "comment",
        "s"
      ],
      [
        "k",
        "a"
      ],
      [
        "b",
        "u"
      ],
      [
        "%B",
        "0"
      ],
      [
        "7",
        "9"
      ],
      [
        "s",
        "a"
      ],
      [
        "g",
        "u"
      ],
      [
        "c",
        "ar"
      ],
      [
        "s",
        "i"
      ],
      [
        "on",
        "g"
      ],
      [
        "6",
        "6"
      ],
      [
        "ta",
        "il"
      ],
      [
        "00",
        "00"
      ],
      [
        "l",
        "ine"
      ],
      [
        "in",
        "fo"
      ],
      [
        "blogs",
        "pot"
      ],
      [
        "n",
        "y"
      ],
      [
        "le",
        "t"
      ],
      [
        "m",
        "in"
      ],
      [
        "%8",
        "8"
      ],
      [
        "v",
        "al"
      ],
      [
        "s",
        "c"
      ],
      [
        "sho",
        "w"
      ],
      [
        "k",
        "o"
      ],
      [
        "at",
        "or"
      ],
      [
        "j",
        "o"
      ],
      [
        "er",
        "y"
      ],
      [
        "is",
        "h"
      ],
      [
        "al",
        "e"
      ],
      [
        "ar",
        "y"
      ],
      [
        "on",
        "e"
      ],
      [
        "il",
        "l"
      ],
      [
        "co",
        "r"
      ],
      [
        "%3",
        "B"
      ],
      [
        "I",
        "D"
      ],
      [
        "c",
        "c"
      ],
      [
        "w",
        "n"
      ],
      [
        "%B",
        "9"
      ],
      [
        "%7",
        "C"
      ],
      [
        "d",
        "s"
      ],
      [
        "de",
        "l"
      ],
      [
        "an",
        "s"
      ],
      [
        "%B",
        "E"
      ],
      [
        "f",
        "f"
      ],
      [
        "equ",
        "als"
      ],
      [
        "p",
        "t"
      ],
      [
        "4",
        "7"
      ],
      [
        "ic",
        "k"
      ],
      [
        "e",
        "u"
      ],
      [
        "de",
        "tail"
      ],
      [
        "p",
        "a"
      ],
      [
        "s",
        "id"
      ],
      [
        "el",
        "l"
      ],
      [
        "d",
        "is"
      ],
      [
        "5",
        "9"
      ],
      [
        "t",
        "ra"
      ],
      [
        "top",
        "ic"
      ],
      [
        "%8",
        "C"
      ],
      [
        "as",
        "h"
      ],
      [
        "5",
        "8"
      ],
      [
        "p",
        "re"
      ],
      [
        "n",
        "l"
      ],
      [
        "h",
        "u"
      ],
      [
        "un",
        "g"
      ],
      [
        "3",
        "3"
      ],
      [
        "ent",
        "s"
      ],
      [
        "%8",
        "5"
      ],
      [
        "au",
        "th"
      ],
      [
        "p",
        "la"
      ],
      [
        "s",
        "ort"
      ],
      [
        "1",
        "00"
      ],
      [
        "ch",
        "e"
      ],
      [
        "m",
        "s"
      ],
      [
        "en",
        "s"
      ],
      [
        "ul",
        "t"
      ],
      [
        "ap",
        "p"
      ],
      [
        "un",
        "d"
      ],
      [
        "w",
        "h"
      ],
      [
        "%B",
        "5"
      ],
      [
        "l",
        "in"
      ],
      [
        "s",
        "s"
      ],
      [
        "m",
        "i"
      ],
      [
        "7",
        "7"
      ],
      [
        "ac",
        "e"
      ],
      [
        "%B",
        "3"
      ],
      [
        "p",
        "ub"
      ],
      [
        "y",
        "a"
      ],
      [
        "sub",
        "ject"
      ],
      [
        "it",
        "h"
      ],
      [
        "%8",
        "6"
      ],
      [
        "%E",
        "6"
      ],
      [
        "w",
        "ik"
      ],
      [
        "e",
        "k"
      ],
      [
        "c",
        "al"
      ],
      [
        "i",
        "an"
      ],
      [
        "l",
        "ic"
      ],
      [
        "ho",
        "to"
      ],
      [
        "en",
        "g"
      ],
      [
        "ig",
        "n"
      ],
      [
        "col",
        "le"
      ],
      [
        "6",
        "8"
      ],
      [
        "re",
        "l"
      ],
      [
        "j",
        "a"
      ],
      [
        "re",
        "ad"
      ],
      [
        "6",
        "9"
      ],
      [
        "ation",
        "al"
      ],
      [
        "artic",
        "le"
      ],
      [
        "d",
        "at"
      ],
      [
        "%A",
        "F"
      ],
      [
        "%D",
        "7"
      ],
      [
        "auth",
        "or"
      ],
      [
        "u",
        "d"
      ],
      [
        "c",
        "z"
      ],
      [
        "in",
        "d"
      ],
      [
        "vi",
        "de"
      ],
      [
        "l",
        "u"
      ],
      [
        "in",
        "ter"
      ],
      [
        "h",
        "er"
      ],
      [
        "%A",
        "A"
      ],
      [
        "ur",
        "n"
      ],
      [
        "y",
        "e"
      ],
      [
        "9",
        "8"
      ],
      [
        "%B",
        "2"
      ],
      [
        "4",
        "0"
      ],
      [
        "m",
        "er"
      ],
      [
        "%A",
        "4"
      ],
      [
        "cont",
        "ent"
      ],
      [
        "com",
        "p"
      ],
      [
        "%A",
        "8"
      ],
      [
        "asp",
        "x"
      ],
      [
        "s",
        "y"
      ],
      [
        "%A",
        "9"
      ],
      [
        "pres",
        "s"
      ],
      [
        "p",
        "hoto"
      ],
      [
        "on",
        "line"
      ],
      [
        "z",
        "h"
      ],
      [
        "z",
        "a"
      ],
      [
        "in",
        "a"
      ],
      [
        "5",
        "0"
      ],
      [
        "co",
        "un"
      ],
      [
        "l",
        "and"
      ],
      [
        "b",
        "b"
      ],
      [
        "e",
        "p"
      ],
      [
        "%8",
        "7"
      ],
      [
        "g",
        "en"
      ],
      [
        "d",
        "ay"
      ],
      [
        "a",
        "st"
      ],
      [
        "g",
        "ro"
      ],
      [
        "%B",
        "A"
      ],
      [
        "n",
        "i"
      ],
      [
        "e",
        "c"
      ],
      [
        "k",
        "s"
      ],
      [
        "%B",
        "C"
      ],
      [
        "o",
        "v"
      ],
      [
        "t",
        "i"
      ],
      [
        "a",
        "ct"
      ],
      [
        "k",
        "i"
      ],
      [
        "u",
        "st"
      ],
      [
        "5",
        "7"
      ],
      [
        "pla",
        "y"
      ],
      [
        "%B",
        "4"
      ],
      [
        "g",
        "i"
      ],
      [
        "201",
        "8"
      ],
      [
        "go",
        "v"
      ],
      [
        "d",
        "ate"
      ],
      [
        "f",
        "er"
      ],
      [
        "g",
        "et"
      ],
      [
        "p",
        "or"
      ],
      [
        "op",
        "er"
      ],
      [
        "jp",
        "g"
      ],
      [
        "wor",
        "d"
      ],
      [
        "an",
        "ce"
      ],
      [
        "l",
        "d"
      ],
      [
        "ion",
        "s"
      ],
      [
        "u",
        "a"
      ],
      [
        "9",
        "6"
      ],
      [
        "201",
        "7"
      ],
      [
        "m",
        "et"
      ],
      [
        "u",
        "g"
      ],
      [
        "ic",
        "s"
      ],
      [
        "ic",
        "a"
      ],
      [
        "d",
        "r"
      ],
      [
        "b",
        "ro"
      ],
      [
        "t",
        "w"
      ],
      [
        "re",
        "g"
      ],
      [
        "f",
        "re"
      ],
      [
        "colle",
        "ction"
      ],
      [
        "sp",
        "ort"
      ],
      [
        "c",
        "y"
      ],
      [
        "I",
        "d"
      ],
      [
        "lo",
        "ad"
      ],
      [
        "al",
        "og"
      ],
      [
        "i",
        "de"
      ],
      [
        "l",
        "ang"
      ],
      [
        "p",
        "df"
      ],
      [
        "%8",
        "A"
      ],
      [
        "201",
        "9"
      ],
      [
        "%A",
        "6"
      ],
      [
        "%E",
        "7"
      ],
      [
        "y",
        "s"
      ],
      [
        "qu",
        "e"
      ],
      [
        "a",
        "i"
      ],
      [
        "u",
        "se"
      ],
      [
        "j",
        "ob"
      ],
      [
        "8",
        "6"
      ],
      [
        "4",
        "3"
      ],
      [
        "e",
        "f"
      ],
      [
        "w",
        "ith"
      ],
      [
        "it",
        "em"
      ],
      [
        "ag",
        "es"
      ],
      [
        "s",
        "m"
      ],
      [
        "f",
        "l"
      ],
      [
        "t",
        "u"
      ],
      [
        "as",
        "e"
      ],
      [
        "%2",
        "6"
      ],
      [
        "c",
        "an"
      ],
      [
        "8",
        "9"
      ],
      [
        "ser",
        "v"
      ],
      [
        "o",
        "ur"
      ],
      [
        "c",
        "re"
      ],
      [
        "p",
        "art"
      ],
      [
        "c",
        "ent"
      ],
      [
        "b",
        "le"
      ],
      [
        "g",
        "ra"
      ],
      [
        "l",
        "t"
      ],
      [
        "c",
        "r"
      ],
      [
        "ig",
        "ht"
      ],
      [
        "in",
        "s"
      ],
      [
        "3",
        "1"
      ],
      [
        "ing",
        "s"
      ],
      [
        "fi",
        "le"
      ],
      [
        "20",
        "20"
      ],
      [
        "c",
        "es"
      ],
      [
        "201",
        "6"
      ],
      [
        "st",
        "r"
      ],
      [
        "filter",
        "type"
      ],
      [
        "v",
        "a"
      ],
      [
        "f",
        "ac"
      ],
      [
        "t",
        "im"
      ],
      [
        "%B",
        "B"
      ],
      [
        "it",
        "al"
      ],
      [
        "5",
        "4"
      ],
      [
        "e",
        "le"
      ],
      [
        "v",
        "is"
      ],
      [
        "w",
        "p"
      ],
      [
        "t",
        "ri"
      ],
      [
        "m",
        "it"
      ],
      [
        "f",
        "in"
      ],
      [
        "v",
        "el"
      ],
      [
        "t",
        "or"
      ],
      [
        "for",
        "m"
      ],
      [
        "at",
        "h"
      ],
      [
        "ation",
        "s"
      ],
      [
        "s",
        "up"
      ],
      [
        "k",
        "et"
      ],
      [
        "%D",
        "B"
      ],
      [
        "t",
        "it"
      ],
      [
        "%A",
        "D"
      ],
      [
        "%",
        "d"
      ],
      [
        "I",
        "n"
      ],
      [
        "b",
        "ar"
      ],
      [
        "t",
        "v"
      ],
      [
        "oper",
        "ator"
      ],
      [
        "6",
        "7"
      ],
      [
        "po",
        "l"
      ],
      [
        "3",
        "2"
      ],
      [
        "a",
        "ch"
      ],
      [
        "ho",
        "me"
      ],
      [
        "vide",
        "o"
      ],
      [
        "do",
        "c"
      ],
      [
        "tag",
        "s"
      ],
      [
        "no",
        "t"
      ],
      [
        "ci",
        "al"
      ],
      [
        "ro",
        "m"
      ],
      [
        "m",
        "em"
      ],
      [
        "li",
        "g"
      ],
      [
        "rel",
        "ational"
      ],
      [
        "t",
        "on"
      ],
      [
        "mo",
        "de"
      ],
      [
        "p",
        "i"
      ],
      [
        "x",
        "t"
      ],
      [
        "in",
        "o"
      ],
      [
        "%C",
        "F"
      ],
      [
        "m",
        "un"
      ],
      [
        "n",
        "g"
      ],
      [
        "is",
        "s"
      ],
      [
        "w",
        "o"
      ],
      [
        "c",
        "d"
      ],
      [
        "8",
        "7"
      ],
      [
        "i",
        "al"
      ],
      [
        "h",
        "i"
      ],
      [
        "di",
        "re"
      ],
      [
        "t",
        "ru"
      ],
      [
        "9",
        "7"
      ],
      [
        "m",
        "en"
      ],
      [
        "b",
        "us"
      ],
      [
        "an",
        "k"
      ],
      [
        "6",
        "5"
      ],
      [
        "201",
        "3"
      ],
      [
        "lo",
        "w"
      ],
      [
        "2",
        "F"
      ],
      [
        "en",
        "ce"
      ],
      [
        "wik",
        "i"
      ],
      [
        "w",
        "at"
      ],
      [
        "8",
        "5"
      ],
      [
        "ke",
        "y"
      ],
      [
        "p",
        "s"
      ],
      [
        "an",
        "n"
      ],
      [
        "g",
        "all"
      ],
      [
        "%E",
        "8"
      ],
      [
        "ho",
        "t"
      ],
      [
        "m",
        "ag"
      ],
      [
        "%A",
        "E"
      ],
      [
        "201",
        "4"
      ],
      [
        "et",
        "s"
      ],
      [
        "au",
        "to"
      ],
      [
        "20",
        "21"
      ],
      [
        "val",
        "ue"
      ],
      [
        "po",
        "s"
      ],
      [
        "a",
        "ction"
      ],
      [
        "l",
        "l"
      ],
      [
        "%5",
        "C"
      ],
      [
        "201",
        "2"
      ],
      [
        "6",
        "4"
      ],
      [
        "t",
        "em"
      ],
      [
        "k",
        "r"
      ],
      [
        "c",
        "f"
      ],
      [
        "ar",
        "i"
      ],
      [
        "forum",
        "s"
      ],
      [
        "or",
        "der"
      ],
      [
        "9",
        "5"
      ],
      [
        "il",
        "y"
      ],
      [
        "201",
        "5"
      ],
      [
        "cat",
        "alog"
      ],
      [
        "u",
        "c"
      ],
      [
        "of",
        "f"
      ],
      [
        "c",
        "ur"
      ],
      [
        "%9",
        "9"
      ],
      [
        "b",
        "al"
      ],
      [
        "er",
        "e"
      ],
      [
        "8",
        "0"
      ],
      [
        "th",
        "read"
      ],
      [
        "6",
        "0"
      ],
      [
        "g",
        "re"
      ],
      [
        "s",
        "ol"
      ],
      [
        "k",
        "t"
      ],
      [
        "%A",
        "1"
      ],
      [
        "20",
        "22"
      ],
      [
        "z",
        "e"
      ],
      [
        "pub",
        "lic"
      ],
      [
        "m",
        "us"
      ],
      [
        "d",
        "b"
      ],
      [
        "s",
        "on"
      ],
      [
        "ic",
        "al"
      ],
      [
        "an",
        "y"
      ],
      [
        "7",
        "4"
      ],
      [
        "p",
        "p"
      ],
      [
        "wor",
        "k"
      ],
      [
        "w",
        "a"
      ],
      [
        "c",
        "as"
      ],
      [
        "R",
        "e"
      ],
      [
        "h",
        "r"
      ],
      [
        "an",
        "a"
      ],
      [
        "8",
        "4"
      ],
      [
        "n",
        "ame"
      ],
      [
        "ol",
        "d"
      ],
      [
        "st",
        "at"
      ],
      [
        "ho",
        "w"
      ],
      [
        "te",
        "ch"
      ],
      [
        "%B",
        "7"
      ],
      [
        "gall",
        "ery"
      ],
      [
        "m",
        "l"
      ],
      [
        "or",
        "s"
      ],
      [
        "dire",
        "ct"
      ],
      [
        "in",
        "k"
      ],
      [
        "v",
        "an"
      ],
      [
        "i",
        "re"
      ],
      [
        "b",
        "el"
      ],
      [
        "%A",
        "5"
      ],
      [
        "A",
        "A"
      ],
      [
        "f",
        "c"
      ],
      [
        "tit",
        "le"
      ],
      [
        "s",
        "pe"
      ],
      [
        "%9",
        "5"
      ],
      [
        "e",
        "arch"
      ],
      [
        "P",
        "ro"
      ],
      [
        "d",
        "y"
      ],
      [
        "arch",
        "ive"
      ],
      [
        "us",
        "er"
      ],
      [
        "g",
        "a"
      ],
      [
        "%A",
        "C"
      ],
      [
        "r",
        "ad"
      ],
      [
        "%9",
        "C"
      ],
      [
        "st",
        "ore"
      ],
      [
        "c",
        "er"
      ],
      [
        "w",
        "er"
      ],
      [
        "iv",
        "es"
      ],
      [
        "9",
        "4"
      ],
      [
        "c",
        "m"
      ],
      [
        "ut",
        "m"
      ],
      [
        "7",
        "0"
      ],
      [
        "b",
        "d"
      ],
      [
        "%E",
        "9"
      ],
      [
        "do",
        "wn"
      ],
      [
        "A",
        "r"
      ],
      [
        "st",
        "art"
      ],
      [
        "9",
        "0"
      ],
      [
        "ur",
        "l"
      ],
      [
        "med",
        "ia"
      ],
      [
        "f",
        "t"
      ],
      [
        "ev",
        "ent"
      ],
      [
        "s",
        "et"
      ],
      [
        "st",
        "er"
      ],
      [
        "ye",
        "ar"
      ],
      [
        "w",
        "s"
      ],
      [
        "b",
        "re"
      ],
      [
        "t",
        "re"
      ],
      [
        "pl",
        "y"
      ],
      [
        "bo",
        "ut"
      ],
      [
        "yo",
        "u"
      ],
      [
        "u",
        "al"
      ],
      [
        "it",
        "s"
      ],
      [
        "%8",
        "B"
      ],
      [
        "a",
        "a"
      ],
      [
        "ic",
        "es"
      ],
      [
        "e",
        "e"
      ],
      [
        "collection",
        "s"
      ],
      [
        "gro",
        "up"
      ],
      [
        "s",
        "al"
      ],
      [
        "b",
        "il"
      ],
      [
        "%A",
        "3"
      ],
      [
        "bo",
        "ard"
      ],
      [
        "ad",
        "o"
      ],
      [
        "a",
        "ir"
      ],
      [
        "b",
        "c"
      ],
      [
        "h",
        "ar"
      ],
      [
        "so",
        "ur"
      ],
      [
        "g",
        "g"
      ],
      [
        "v",
        "en"
      ],
      [
        "o",
        "ut"
      ],
      [
        "on",
        "t"
      ],
      [
        "A",
        "N"
      ],
      [
        "i",
        "ch"
      ],
      [
        "f",
        "rom"
      ],
      [
        "th",
        "er"
      ],
      [
        "a",
        "de"
      ],
      [
        "c",
        "am"
      ],
      [
        "op",
        "en"
      ],
      [
        "or",
        "ies"
      ],
      [
        "m",
        "es"
      ],
      [
        "d",
        "ig"
      ],
      [
        "4",
        "2"
      ],
      [
        "d",
        "en"
      ],
      [
        "ic",
        "t"
      ],
      [
        "s",
        "ite"
      ],
      [
        "g",
        "am"
      ],
      [
        "m",
        "u"
      ],
      [
        "5",
        "3"
      ],
      [
        "h",
        "el"
      ],
      [
        "lo",
        "c"
      ],
      [
        "j",
        "s"
      ],
      [
        "ad",
        "a"
      ],
      [
        "lig",
        "ht"
      ],
      [
        "c",
        "u"
      ],
      [
        "m",
        "as"
      ],
      [
        "c",
        "ity"
      ],
      [
        "s",
        "w"
      ],
      [
        "%E",
        "4"
      ],
      [
        "20",
        "23"
      ],
      [
        "201",
        "1"
      ],
      [
        "d",
        "c"
      ],
      [
        "i",
        "le"
      ],
      [
        "a",
        "h"
      ],
      [
        "o",
        "ol"
      ],
      [
        "st",
        "e"
      ],
      [
        "wor",
        "ld"
      ],
      [
        "a",
        "il"
      ],
      [
        "is",
        "e"
      ],
      [
        "g",
        "al"
      ],
      [
        "b",
        "s"
      ],
      [
        "gr",
        "am"
      ],
      [
        "n",
        "or"
      ],
      [
        "p",
        "at"
      ],
      [
        "re",
        "view"
      ],
      [
        "pro",
        "file"
      ],
      [
        "p",
        "ers"
      ],
      [
        "ur",
        "s"
      ],
      [
        "o",
        "u"
      ],
      [
        "%E",
        "C"
      ],
      [
        "%2",
        "B"
      ],
      [
        "ed",
        "ia"
      ],
      [
        "4",
        "1"
      ],
      [
        "s",
        "im"
      ],
      [
        "el",
        "s"
      ],
      [
        "ul",
        "l"
[...]
